{"version":"1.0","truncation":null,"padding":null,"added_tokens":[{"id":0,"content":"<pad>","single_word":false,"lstrip":false,"rstrip":false,"normalized":false,"special":true},{"id":1,"content":"<eos>","single_word":false,"lstrip":false,"rstrip":false,"normalized":false,"special":true},{"id":2,"content":"<bos>","single_word":false,"lstrip":false,"rstrip":false,"normalized":false,"special":true},{"id":3,"content":"<unk>","single_word":false,"lstrip":false,"rstrip":false,"normalized":false,"special":true},{"id":4,"content":"<|tool>","single_word":false,"lstrip":false,"rstrip":false,"normalized":false,"special":true},{"id":5,"content":"<tool|>","single_word":false,"lstrip":false,"rstrip":false,"normalized":false,"special":true},{"id":6,"content":"<|tool_call>","single_word":false,"lstrip":false,"rstrip":false,"normalized":false,"special":true},{"id":7,"content":"<tool_call|>","single_word":false,"lstrip":false,"rstrip":false,"normalized":false,"special":true},{"id":8,"content":"<|tool_response>","single_word":false,"lstrip":false,"rstrip":false,"normalized":false,"special":true},{"id":9,"content":"<tool_response|>","single_word":false,"lstrip":false,"rstrip":false,"normalized":false,"special":true},{"id":10,"content":"<|\"|>","single_word":false,"lstrip":false,"rstrip":false,"normalized":false,"special":true},{"id":11,"content":"<|think|>","single_word":false,"lstrip":false,"rstrip":false,"normalized":false,"special":true},{"id":12,"content":"<|channel>","single_word":false,"lstrip":false,"rstrip":false,"normalized":false,"special":true},{"id":13,"content":"<channel|>","single_word":false,"lstrip":false,"rstrip":false,"normalized":false,"special":true},{"id":14,"content":"<|turn>","single_word":false,"lstrip":false,"rstrip":false,"normalized":false,"special":true},{"id":15,"content":"<turn|>","single_word":false,"lstrip":false,"rstrip":false,"normalized":false,"special":true},{"id":16,"content":"<|fim_prefix|>","single_word":false,"lstrip":false,"rstrip":false,"normalized":false,"special":true},{"id":17,"content":"<|fim_middle|>","single_word":false,"lstrip":false,"rstrip":false,"normalized":false,"special":true},{"id":18,"content":"<|fim_suffix|>","single_word":false,"lstrip":false,"rstrip":false,"normalized":false,"special":true},{"id":19,"content":"<|fim_pad|>","single_word":false,"lstrip":false,"rstrip":false,"normalized":false,"special":true},{"id":20,"content":"<|reserved_0|>","single_word":false,"lstrip":false,"rstrip":false,"normalized":false,"special":true},{"id":21,"content":"<|reserved_1|>","single_word":false,"lstrip":false,"rstrip":false,"normalized":false,"special":true},{"id":22,"content":"<|reserved_2|>","single_word":false,"lstrip":false,"rstrip":false,"normalized":false,"special":true},{"id":23,"content":"<|reserved_3|>","single_word":false,"lstrip":false,"rstrip":false,"normalized":false,"special":true},{"id":24,"content":"<|reserved_4|>","single_word":false,"lstrip":false,"rstrip":false,"normalized":false,"special":true},{"id":25,"content":"<|reserved_5|>","single_word":false,"lstrip":false,"rstrip":false,"normalized":false,"special":true},{"id":26,"content":"<|reserved_6|>","single_word":false,"lstrip":false,"rstrip":false,"normalized":false,"special":true},{"id":27,"content":"<|reserved_7|>","single_word":false,"lstrip":false,"rstrip":false,"normalized":false,"special":true},{"id":28,"content":"<|reserved_8|>","single_word":false,"lstrip":false,"rstrip":false,"normalized":false,"special":true},{"id":29,"content":"<|reserved_9|>","single_word":false,"lstrip":false,"rstrip":false,"normalized":false,"special":true},{"id":30,"content":"<|reserved_10|>","single_word":false,"lstrip":false,"rstrip":false,"normalized":false,"special":true},{"id":31,"content":"<|reserved_11|>","single_word":false,"lstrip":false,"rstrip":false,"normalized":false,"special":true},{"id":32,"content":"<|reserved_12|>","single_word":false,"lstrip":false,"rstrip":false,"normalized":false,"special":true},{"id":33,"content":"<|reserved_13|>","single_word":false,"lstrip":false,"rstrip":false,"normalized":false,"special":true},{"id":34,"content":"<|reserved_14|>","single_word":false,"lstrip":false,"rstrip":false,"normalized":false,"special":true},{"id":35,"content":"<|reserved_15|>","single_word":false,"lstrip":false,"rstrip":false,"normalized":false,"special":true}],"normalizer":{"type":"Replace","pattern":{"String":" "},"content":"▁"},"pre_tokenizer":{"type":"Split","pattern":{"String":" "},"behavior":"MergedWithPrevious","invert":false},"post_processor":{"type":"TemplateProcessing","single":[{"SpecialToken":{"id":"<bos>","type_id":0}},{"Sequence":{"id":"A","type_id":0}}],"pair":[{"SpecialToken":{"id":"<bos>","type_id":0}},{"Sequence":{"id":"A","type_id":0}},{"SpecialToken":{"id":"<bos>","type_id":1}},{"Sequence":{"id":"B","type_id":1}}],"special_tokens":{"<bos>":{"id":"<bos>","ids":[2],"tokens":["<bos>"]}}},"decoder":{"type":"Sequence","decoders":[{"type":"Replace","pattern":{"String":"▁"},"content":" "},{"type":"ByteFallback"},{"type":"Fuse"}]},"model":{"type":"BPE","dropout":null,"unk_token":"<unk>","continuing_subword_prefix":null,"end_of_word_suffix":null,"fuse_unk":true,"byte_fallback":true,"ignore_merges":false,"vocab":{"<pad>":0,"<eos>":1,"<bos>":2,"<unk>":3,"<|tool>":4,"<tool|>":5,"<|tool_call>":6,"<tool_call|>":7,"<|tool_response>":8,"<tool_response|>":9,"<|\"|>":10,"<|think|>":11,"<|channel>":12,"<channel|>":13,"<|turn>":14,"<turn|>":15,"<|fim_prefix|>":16,"<|fim_middle|>":17,"<|fim_suffix|>":18,"<|fim_pad|>":19,"<|reserved_0|>":20,"<|reserved_1|>":21,"<|reserved_2|>":22,"<|reserved_3|>":23,"<|reserved_4|>":24,"<|reserved_5|>":25,"<|reserved_6|>":26,"<|reserved_7|>":27,"<|reserved_8|>":28,"<|reserved_9|>":29,"<|reserved_10|>":30,"<|reserved_11|>":31,"<|reserved_12|>":32,"<|reserved_13|>":33,"<|reserved_14|>":34,"<|reserved_15|>":35,"\n":36,"\n\n":37,"\n\n\n":38,"\n\n\n\n":39,"\n\n\n\n\n":40,"\n\n\n\n\n\n":41,"\n\n\n\n\n\n\n":42,"\n\n\n\n\n\n\n\n":43,"\n\n\n\n\n\n\n\n\n":44,"\n\n\n\n\n\n\n\n\n\n":45,"\n\n\n\n\n\n\n\n\n\n\n":46,"\n\n\n\n\n\n\n\n\n\n\n\n":47,"\n\n\n\n\n\n\n\n\n\n\n\n\n":48,"\n\n\n\n\n\n\n\n\n\n\n\n\n\n":49,"\n\n\n\n\n\n\n\n\n\n\n\n\n\n\n":50,"\n\n\n\n\n\n\n\n\n\n\n\n\n\n\n\n":51,"\n\n\n\n\n\n\n\n\n\n\n\n\n\n\n\n\n":52,"\n\n\n\n\n\n\n\n\n\n\n\n\n\n\n\n\n\n":53,"\n\n\n\n\n\n\n\n\n\n\n\n\n\n\n\n\n\n\n":54,"\n\n\n\n\n\n\n\n\n\n\n\n\n\n\n\n\n\n\n\n":55,"\n\n\n\n\n\n\n\n\n\n\n\n\n\n\n\n\n\n\n\n\n":56,"\n\n\n\n\n\n\n\n\n\n\n\n\n\n\n\n\n\n\n\n\n\n":57,"\n\n\n\n\n\n\n\n\n\n\n\n\n\n\n\n\n\n\n\n\n\n\n":58,"\n\n\n\n\n\n\n\n\n\n\n\n\n\n\n\n\n\n\n\n\n\n\n\n":59,"\n\n\n\n\n\n\n\n\n\n\n\n\n\n\n\n\n\n\n\n\n\n\n\n\n":60,"\n\n\n\n\n\n\n\n\n\n\n\n\n\n\n\n\n\n\n\n\n\n\n\n\n\n":61,"\n\n\n\n\n\n\n\n\n\n\n\n\n\n\n\n\n\n\n\n\n\n\n\n\n\n\n":62,"\n\n\n\n\n\n\n\n\n\n\n\n\n\n\n\n\n\n\n\n\n\n\n\n\n\n\n\n":63,"\n\n\n\n\n\n\n\n\n\n\n\n\n\n\n\n\n\n\n\n\n\n\n\n\n\n\n\n\n":64,"\n\n\n\n\n\n\n\n\n\n\n\n\n\n\n\n\n\n\n\n\n\n\n\n\n\n\n\n\n\n":65,"\n\n\n\n\n\n\n\n\n\n\n\n\n\n\n\n\n\n\n\n\n\n\n\n\n\n\n\n\n\n\n":66,"▁▁":67,"▁▁▁":68,"▁▁▁▁":69,"▁▁▁▁▁":70,"▁▁▁▁▁▁":71,"▁▁▁▁▁▁▁":72,"▁▁▁▁▁▁▁▁":73,"▁▁▁▁▁▁▁▁▁":74,"▁▁▁▁▁▁▁▁▁▁":75,"▁▁▁▁▁▁▁▁▁▁▁":76,"▁▁▁▁▁▁▁▁▁▁▁▁":77,"▁▁▁▁▁▁▁▁▁▁▁▁▁":78,"▁▁▁▁▁▁▁▁▁▁▁▁▁▁":79,"▁▁▁▁▁▁▁▁▁▁▁▁▁▁▁":80,"▁▁▁▁▁▁▁▁▁▁▁▁▁▁▁▁":81,"▁▁▁▁▁▁▁▁▁▁▁▁▁▁▁▁▁":82,"▁▁▁▁▁▁▁▁▁▁▁▁▁▁▁▁▁▁":83,"▁▁▁▁▁▁▁▁▁▁▁▁▁▁▁▁▁▁▁":84,"▁▁▁▁▁▁▁▁▁▁▁▁▁▁▁▁▁▁▁▁":85,"▁▁▁▁▁▁▁▁▁▁▁▁▁▁▁▁▁▁▁▁▁":86,"▁▁▁▁▁▁▁▁▁▁▁▁▁▁▁▁▁▁▁▁▁▁":87,"▁▁▁▁▁▁▁▁▁▁▁▁▁▁▁▁▁▁▁▁▁▁▁":88,"▁▁▁▁▁▁▁▁▁▁▁▁▁▁▁▁▁▁▁▁▁▁▁▁":89,"▁▁▁▁▁▁▁▁▁▁▁▁▁▁▁▁▁▁▁▁▁▁▁▁▁":90,"▁▁▁▁▁▁▁▁▁▁▁▁▁▁▁▁▁▁▁▁▁▁▁▁▁▁":91,"▁▁▁▁▁▁▁▁▁▁▁▁▁▁▁▁▁▁▁▁▁▁▁▁▁▁▁":92,"▁▁▁▁▁▁▁▁▁▁▁▁▁▁▁▁▁▁▁▁▁▁▁▁▁▁▁▁":93,"▁▁▁▁▁▁▁▁▁▁▁▁▁▁▁▁▁▁▁▁▁▁▁▁▁▁▁▁▁":94,"▁▁▁▁▁▁▁▁▁▁▁▁▁▁▁▁▁▁▁▁▁▁▁▁▁▁▁▁▁▁":95,"▁▁▁▁▁▁▁▁▁▁▁▁▁▁▁▁▁▁▁▁▁▁▁▁▁▁▁▁▁▁▁":96,"<0x00>":97,"<0x01>":98,"<0x02>":99,"<0x03>":100,"<0x04>":101,"<0x05>":102,"<0x06>":103,"<0x07>":104,"<0x08>":105,"<0x09>":106,"<0x0A>":107,"<0x0B>":108,"<0x0C>":109,"<0x0D>":110,"<0x0E>":111,"<0x0F>":112,"<0x10>":113,"<0x11>":114,"<0x12>":115,"<0x13>":116,"<0x14>":117,"<0x15>":118,"<0x16>":119,"<0x17>":120,"<0x18>":121,"<0x19>":122,"<0x1A>":123,"<0x1B>":124,"<0x1C>":125,"<0x1D>":126,"<0x1E>":127,"<0x1F>":128,"<0x20>":129,"<0x21>":130,"<0x22>":131,"<0x23>":132,"<0x24>":133,"<0x25>":134,"<0x26>":135,"<0x27>":136,"<0x28>":137,"<0x29>":138,"<0x2A>":139,"<0x2B>":140,"<0x2C>":141,"<0x2D>":142,"<0x2E>":143,"<0x2F>":144,"<0x30>":145,"<0x31>":146,"<0x32>":147,"<0x33>":148,"<0x34>":149,"<0x35>":150,"<0x36>":151,"<0x37>":152,"<0x38>":153,"<0x39>":154,"<0x3A>":155,"<0x3B>":156,"<0x3C>":157,"<0x3D>":158,"<0x3E>":159,"<0x3F>":160,"<0x40>":161,"<0x41>":162,"<0x42>":163,"<0x43>":164,"<0x44>":165,"<0x45>":166,"<0x46>":167,"<0x47>":168,"<0x48>":169,"<0x49>":170,"<0x4A>":171,"<0x4B>":172,"<0x4C>":173,"<0x4D>":174,"<0x4E>":175,"<0x4F>":176,"<0x50>":177,"<0x51>":178,"<0x52>":179,"<0x53>":180,"<0x54>":181,"<0x55>":182,"<0x56>":183,"<0x57>":184,"<0x58>":185,"<0x59>":186,"<0x5A>":187,"<0x5B>":188,"<0x5C>":189,"<0x5D>":190,"<0x5E>":191,"<0x5F>":192,"<0x60>":193,"<0x61>":194,"<0x62>":195,"<0x63>":196,"<0x64>":197,"<0x65>":198,"<0x66>":199,"<0x67>":200,"<0x68>":201,"<0x69>":202,"<0x6A>":203,"<0x6B>":204,"<0x6C>":205,"<0x6D>":206,"<0x6E>":207,"<0x6F>":208,"<0x70>":209,"<0x71>":210,"<0x72>":211,"<0x73>":212,"<0x74>":213,"<0x75>":214,"<0x76>":215,"<0x77>":216,"<0x78>":217,"<0x79>":218,"<0x7A>":219,"<0x7B>":220,"<0x7C>":221,"<0x7D>":222,"<0x7E>":223,"<0x7F>":224,"<0x80>":225,"<0x81>":226,"<0x82>":227,"<0x83>":228,"<0x84>":229,"<0x85>":230,"<0x86>":231,"<0x87>":232,"<0x88>":233,"<0x89>":234,"<0x8A>":235,"<0x8B>":236,"<0x8C>":237,"<0x8D>":238,"<0x8E>":239,"<0x8F>":240,"<0x90>":241,"<0x91>":242,"<0x92>":243,"<0x93>":244,"<0x94>":245,"<0x95>":246,"<0x96>":247,"<0x97>":248,"<0x98>":249,"<0x99>":250,"<0x9A>":251,"<0x9B>":252,"<0x9C>":253,"<0x9D>":254,"<0x9E>":255,"<0x9F>":256,"<0xA0>":257,"<0xA1>":258,"<0xA2>":259,"<0xA3>":260,"<0xA4>":261,"<0xA5>":262,"<0xA6>":263,"<0xA7>":264,"<0xA8>":265,"<0xA9>":266,"<0xAA>":267,"<0xAB>":268,"<0xAC>":269,"<0xAD>":270,"<0xAE>":271,"<0xAF>":272,"<0xB0>":273,"<0xB1>":274,"<0xB2>":275,"<0xB3>":276,"<0xB4>":277,"<0xB5>":278,"<0xB6>":279,"<0xB7>":280,"<0xB8>":281,"<0xB9>":282,"<0xBA>":283,"<0xBB>":284,"<0xBC>":285,"<0xBD>":286,"<0xBE>":287,"<0xBF>":288,"<0xC0>":289,"<0xC1>":290,"<0xC2>":291,"<0xC3>":292,"<0xC4>":293,"<0xC5>":294,"<0xC6>":295,"<0xC7>":296,"<0xC8>":297,"<0xC9>":298,"<0xCA>":299,"<0xCB>":300,"<0xCC>":301,"<0xCD>":302,"<0xCE>":303,"<0xCF>":304,"<0xD0>":305,"<0xD1>":306,"<0xD2>":307,"<0xD3>":308,"<0xD4>":309,"<0xD5>":310,"<0xD6>":311,"<0xD7>":312,"<0xD8>":313,"<0xD9>":314,"<0xDA>":315,"<0xDB>":316,"<0xDC>":317,"<0xDD>":318,"<0xDE>":319,"<0xDF>":320,"<0xE0>":321,"<0xE1>":322,"<0xE2>":323,"<0xE3>":324,"<0xE4>":325,"<0xE5>":326,"<0xE6>":327,"<0xE7>":328,"<0xE8>":329,"<0xE9>":330,"<0xEA>":331,"<0xEB>":332,"<0xEC>":333,"<0xED>":334,"<0xEE>":335,"<0xEF>":336,"<0xF0>":337,"<0xF1>":338,"<0xF2>":339,"<0xF3>":340,"<0xF4>":341,"<0xF5>":342,"<0xF6>":343,"<0xF7>":344,"<0xF8>":345,"<0xF9>":346,"<0xFA>":347,"<0xFB>":348,"<0xFC>":349,"<0xFD>":350,"<0xFE>":351,"<0xFF>":352,"▁t":353,"in":354,"▁a":355,"er":356,"on":357,"he":358,"re":359,"en":360,"at":361,"▁s":362,"or":363,"▁c":364,"▁the":365,"es":366,"an":367,"it":368,"▁p":369,"is":370,"▁o":371,"▁d":372,"al":373,"▁w":374,"ar":375,"▁f":376,"▁b":377,"le":378,"▁m":379,"ou":380,"ing":381,"nd":382,"ed":383,"ic":384,"ion":385,"as":386,"▁in":387,"▁of":388,"ro":389,"▁to":390,"▁and":391,"ent":392,"▁h":393,"el":394,"et":395,"▁l":396,"▁n":397,"ct":398,"st":399,"▁th":400,"om":401,"il":402,"▁re":403,"▁e":404,"am":405,"id":406,"im":407,"▁g":408,"ut":409,"ol":410,"ac":411,"ad":412,"ig":413,"▁S":414,"ur":415,"ot":416,"▁T":417,"▁u":418,"ve":419,"se":420,"▁A":421,"▁is":422,"▁I":423,"▁C":424,"▁v":425,"ation":426,"▁(":427,"▁de":428,"▁y":429,"ay":430,"ow":431,"▁for":432,"ch":433,"ul":434,"qu":435,"▁be":436,"▁=":437,"▁st":438,"▁on":439,"em":440,"ag":441,"ir":442,"if":443,"os":444,"ly":445,"▁M":446,"ce":447,"ter":448,"od":449,"▁con":450,"ith":451,"▁P":452,"th":453,"ver":454,"ab":455,"um":456,"est":457,"▁that":458,"ra":459,"un":460,"▁B":461,"ri":462,"us":463,"ate":464,"▁with":465,"▁pro":466,"▁$":467,"▁al":468,"▁you":469,"pp":470,"ht":471,"▁an":472,"▁wh":473,"ers":474,"ist":475,"▁as":476,"res":477,"▁k":478,"▁\\":479,"▁D":480,"▁\"":481,"and":482,"▁it":483,");":484,"ere":485,"ak":486,"oc":487,"▁R":488,"▁com":489,"ort":490,"▁F":491,"ess":492,"pe":493,"▁se":494,"▁r":495,"ant":496,"▁L":497,"▁H":498,"ew":499,"▁{":500,"end":501,"ill":502,"▁E":503,"▁N":504,"ction":505,"iv":506,"▁W":507,"op":508,"ath":509,"▁ex":510,"▁or":511,"te":512,"▁<":513,"ight":514,"▁at":515,"ment":516,"▁are":517,"rom":518,"art":519,"ain":520,"ore":521,"▁su":522,"ity":523,"nt":524,"▁G":525,"▁he":526,"▁The":527,"ap":528,"ld":529,"▁this":530,"▁j":531,"▁le":532,"pl":533,"age":534,"▁ch":535,"▁ha":536,"og":537,"ok":538,"_{":539,"▁}":540,"ame":541,"▁by":542,"iz":543,"ue":544,"ine":545,"ud":546,"▁qu":547,"▁was":548,"▁we":549,"pt":550,"ure":551,"ies":552,"▁en":553,"ack":554,"ang":555,"▁from":556,"our":557,"ass":558,"ie":559,"▁sh":560,"ive":561,"ial":562,"ust":563,"▁O":564,"ub":565,"rou":566,"▁not":567,"all":568,"ell":569,"ard":570,"//":571,"ex":572,"ect":573,"=\"":574,"▁tr":575,"int":576,"per":577,"ia":578,"▁un":579,"ind":580,"out":581,"--":582,"ik":583,"port":584,"▁pl":585,"▁J":586,"ost":587,"▁cl":588,"are":589,"ich":590,"▁have":591,"ff":592,"av":593,"cl":594,"▁can":595,"orm":596,"able":597,"ans":598,"ult":599,"con":600,"math":601,"ib":602,"▁U":603,"ire":604,"▁K":605,"ast":606,"▁-":607,"ide":608,"ile":609,"▁'":610,"▁im":611,"▁la":612,"ip":613,"ome":614,"ice":615,"▁ab":616,"ime":617,"ft":618,"▁res":619,"cc":620,"▁if":621,").":622,"▁ne":623,"ould":624,"▁ad":625,"act":626,"ated":627,"▁us":628,"▁do":629,"▁comp":630,"ord":631,"),":632,"du":633,"ase":634,"▁V":635,"▁.":636,"▁all":637,"ite":638,"▁me":639,"ge":640,"lic":641,"hen":642,"^{":643,"ph":644,"ace":645,"ber":646,"urn":647,"▁will":648,"ign":649,"ong":650,"▁cont":651,"▁In":652,"ical":653,"▁int":654,"ork":655,"ear":656,"ition":657,"ata":658,"ous":659,"▁Th":660,"▁*":661,"row":662,"▁per":663,"one":664,"rm":665,"ach":666,"so":667,"▁has":668,"ru":669,"▁go":670,"The":671,"ence":672,"fer":673,"▁your":674,"}$":675,"ry":676,"()":677,"au":678,"\",":679,"get":680,"ng":681,"ont":682,"ance":683,"ens":684,"▁&":685,"▁so":686,"ary":687,"▁which":688,"ep":689,"ther":690,"▁but":691,"ma":692,"▁St":693,"lo":694,"form":695,"ations":696,"ount":697,"▁app":698,"ring":699,"ress":700,"▁des":701,"com":702,"▁out":703,"..":704,"▁i":705,"ll":706,"gh":707,"▁new":708,"▁el":709,"▁ar":710,"▁dis":711,"▁pr":712,"ne":713,"mathrm":714,"ov":715,"▁[":716,"▁up":717,"ake":718,"▁$\\":719,"ook":720,"ents":721,"▁pre":722,"ions":723,"erv":724,"▁man":725,"elf":726,"ual":727,"(\"":728,"▁one":729,"turn":730,"ose":731,"▁sa":732,"ask":733,"▁sp":734,"de":735,"St":736,"▁Y":737,"io":738,"right":739,"ark":740,"▁+":741,"▁they":742,"In":743,"xt":744,"▁z":745,"\">":746,"cre":747,"ert":748,"▁col":749,"▁their":750,"▁part":751,"ors":752,"▁his":753,"vel":754,"ext":755,"ail":756,"ater":757,"▁more":758,"enc":759,"yst":760,"▁te":761,"ject":762,"▁que":763,"ree":764,"own":765,"ck":766,"ory":767,"iew":768,"▁ro":769,"ick":770,"ild":771,"▁inter":772,"▁und":773,"ple":774,"che":775,"▁par":776,"ock":777,"old":778,"her":779,"▁no":780,"eg":781,"ely":782,"</":783,"ah":784,"}\\":785,"▁ev":786,"ound":787,"ink":788,"',":789,"▁were":790,"▁/":791,"pon":792,"▁ag":793,"lect":794,"ize":795,"ient":796,"▁Ch":797,"pr":798,"▁//":799,"▁get":800,"ps":801,"low":802,"we":803,"ery":804,"round":805,"ari":806,"▁work":807,"ob":808,"ode":809,"ike":810,"ys":811,"ublic":812,"left":813,"▁time":814,"led":815,"▁also":816,"▁there":817,"▁return":818,"ype":819,"▁#":820,"ystem":821,"▁“":822,"put":823,"▁di":824,"erm":825,"▁about":826,"ays":827,"text":828,"▁am":829,"ade":830,"▁et":831,"▁est":832,"▁been":833,"▁class":834,"ings":835,"wo":836,"▁who":837,"▁val":838,"▁:":839,"**":840,"sp":841,"ric":842,"▁pe":843,"▁our":844,"▁over":845,"set":846,"ener":847,"▁any":848,"▁co":849,"▁ob":850,"▁It":851,"▁,":852,"▁other":853,"('":854,"ove":855,"irst":856,"▁ind":857,"ian":858,"----":859,"▁my":860,"mer":861,"ram":862,"ish":863,"pro":864,"unction":865,"▁spe":866,"up":867,"inal":868,"ec":869,"▁year":870,"anc":871,"▁had":872,"▁kn":873,"▁acc":874,"▁when":875,"reat":876,"▁sc":877,"▁its":878,"▁back":879,"eth":880,"oken":881,"clud":882,"▁ph":883,"ull":884,"▁some":885,"to":886,"ey":887,"rib":888,"les":889,"ss":890,"▁set":891,"oint":892,"mask":893,"ific":894,"▁than":895,"\":":896,"iss":897,"();":898,"itt":899,"oy":900,"ER":901,"ates":902,"▁them":903,"▁em":904,"▁would":905,"eng":906,"▁def":907,"cess":908,"▁dif":909,"ier":910,"fter":911,"iel":912,"▁comm":913,"▁bl":914,"import":915,"igh":916,"ton":917,"▁|":918,"app":919,"val":920,"ug":921,"token":922,"▁es":923,"▁her":924,"ise":925,"▁pos":926,"ange":927,"▁mod":928,"vers":929,"▁cons":930,"▁x":931,"ax":932,"▁rec":933,".,":934,"▁fe":935,"der":936,"ek":937,"▁produ":938,"▁into":939,"ann":940,"▁like":941,"▁act":942,"▁off":943,"und":944,"▁add":945,"ON":946,"▁const":947,"cept":948,"▁what":949,"fr":950,"▁bet":951,"ble":952,"▁may":953,"▁rel":954,"▁num":955,"ular":956,"ally":957,"ement":958,"▁two":959,"▁reg":960,"very":961,"▁sub":962,"->":963,"▁use":964,"▁del":965,"pos":966,"▁just":967,"sc":968,"tr":969,"ox":970,"}{":971,"▁first":972,"ef":973,"▁This":974,"▁ent":975,"▁said":976,"ym":977,"ied":978,"sh":979,"pect":980,"ank":981,"▁form":982,"let":983,"ood":984,"▁only":985,"arg":986,"▁ass":987,"▁gr":988,"ons":989,"▁We":990,"red":991,"err":992,"ating":993,"olog":994,"aj":995,"▁bu":996,"ause":997,"name":998,"▁need":999,"ale":1000,"IN":1001,"ix":1002,"▁bec":1003,"▁trans":1004,"▁under":1005,"ool":1006,"ict":1007,"ract":1008,"Th":1009,"par":1010,"▁how":1011,"▁prov":1012,"tt":1013,"▁requ":1014,"uch":1015,"))":1016,"==":1017,"az":1018,"▁ac":1019,"▁att":1020,"ung":1021,"ics":1022,"ments":1023,"tern":1024,"oth":1025,"ities":1026,"▁public":1027,"▁these":1028,"riv":1029,"ople":1030,"}^{":1031,"ta":1032,"ility":1033,"que":1034,"ner":1035,"▁==":1036,"ible":1037,"ray":1038,"▁Pro":1039,"rain":1040,"line":1041,"its":1042,"ield":1043,"vent":1044,"ning":1045,"▁data":1046,"},":1047,"ures":1048,"▁self":1049,"rough":1050,"▁stat":1051,"▁pol":1052,"__":1053,"▁sur":1054,"▁–":1055,"▁che":1056,"ren":1057,"ful":1058,"▁Re":1059,"ator":1060,"▁pres":1061,"ative":1062,"▁know":1063,"add":1064,"ages":1065,"ón":1066,"ution":1067,"▁Un":1068,"ci":1069,"▁such":1070,"mo":1071,"▁det":1072,"▁function":1073,"▁He":1074,"als":1075,"▁car":1076,"atch":1077,"▁where":1078,"▁then":1079,"▁sol":1080,"▁Com":1081,"rit":1082,"ues":1083,"▁she":1084,"}_{":1085,"▁after":1086,"any":1087,"ond":1088,"▁cur":1089,"(\\":1090,"ower":1091,"ash":1092,"▁stud":1093,"erson":1094,"▁eff":1095,"fore":1096,"▁min":1097,"▁rem":1098,"ident":1099,"▁inst":1100,"mi":1101,"ute":1102,"▁people":1103,"▁differ":1104,"me":1105,"arch":1106,"▁Se":1107,"of":1108,"▁through":1109,"rent":1110,"▁end":1111,"▁most":1112,"ser":1113,"aw":1114,"▁supp":1115,"ough":1116,"hat":1117,"ational":1118,"▁result":1119,"ms":1120,"RE":1121,"ices":1122,"▁cor":1123,"ased":1124,"ider":1125,"ty":1126,"co":1127,"ins":1128,"▁Q":1129,"▁spec":1130,"▁ser":1131,")$":1132,"hed":1133,"▁includ":1134,"\")":1135,"▁should":1136,"AT":1137,"▁serv":1138,"roup":1139,"▁fl":1140,"▁inv":1141,"▁ve":1142,"▁aut":1143,"ollow":1144,"▁look":1145,"▁make":1146,"min":1147,"▁well":1148,"ai":1149,"...":1150,"ground":1151,"▁@":1152,"ST":1153,"▁hel":1154,"▁op":1155,"ature":1156,"uc":1157,"read":1158,"▁sim":1159,"▁very":1160,"ily":1161,"air":1162,"ript":1163,"▁sm":1164,"▁show":1165,"##":1166,"://":1167,"ts":1168,"▁loc":1169,"amp":1170,"uring":1171,"els":1172,"wn":1173,"▁every":1174,"▁import":1175,"frac":1176,"▁cal":1177,"▁av":1178,"cent":1179,"AR":1180,"ces":1181,"rol":1182,"▁equ":1183,"▁Al":1184,"raph":1185,"imes":1186,"ument":1187,"oid":1188,"ious":1189,"ruct":1190,"the":1191,"ado":1192,"EN":1193,"▁long":1194,"▁play":1195,"▁dist":1196,"\");":1197,"gan":1198,"ern":1199,"▁right":1200,"▁mem":1201,"▁ext":1202,"▁los":1203,"▁could":1204,"▁And":1205,"▁</":1206,"▁An":1207,"▁used":1208,"br":1209,"▁system":1210,"▁ra":1211,"▁see":1212,"▁want":1213,"▁wor":1214,"▁name":1215,"ced":1216,"ween":1217,"velop":1218,"▁med":1219,"irect":1220,"ines":1221,"):":1222,"aut":1223,"col":1224,"ward":1225,"▁=>":1226,"ave":1227,"Re":1228,"::":1229,"▁tem":1230,"ife":1231,"yn":1232,"▁gener":1233,"lement":1234,"cond":1235,"Pro":1236,"uk":1237,"▁Z":1238,"▁now":1239,"ting":1240,"▁high":1241,"day":1242,"▁exper":1243,"ots":1244,"ada":1245,"▁follow":1246,"▁start":1247,"▁mon":1248,"ven":1249,"Con":1250,"ho":1251,"ctions":1252,"self":1253,"It":1254,"▁lo":1255,"▁ed":1256,"▁cre":1257,"yle":1258,"Im":1259,"▁him":1260,"data":1261,"▁years":1262,"▁sign":1263,"▁exp":1264,"▁dec":1265,"oun":1266,"▁point":1267,"▁vari":1268,"amb":1269,"▁hand":1270,"▁count":1271,"ml":1272,"ody":1273,"▁let":1274,"fig":1275,"▁gu":1276,"▁between":1277,"▁good":1278,"AN":1279,"▁don":1280,"other":1281,"▁str":1282,"yl":1283,"view":1284,"tain":1285,"▁each":1286,"▁because":1287,"▁number":1288,"▁value":1289,"▁many":1290,"ited":1291,"be":1292,"li":1293,"play":1294,"▁der":1295,"aking":1296,"Com":1297,"man":1298,"{\\":1299,"AL":1300,"▁sk":1301,"Name":1302,"gr":1303,"Id":1304,"▁again":1305,"ten":1306,"▁Ar":1307,"▁inform":1308,"alk":1309,"abel":1310,"▁char":1311,"▁bel":1312,"OR":1313,"this":1314,"▁even":1315,"item":1316,"iness":1317,"Cont":1318,"chn":1319,"▁find":1320,"log":1321,"son":1322,"▁person":1323,"▁here":1324,"land":1325,"ão":1326,"▁So":1327,"▁test":1328,"▁way":1329,"▁ke":1330,"▁fil":1331,"ional":1332,"▁You":1333,"▁help":1334,"▁did":1335,"▁made":1336,"],":1337,"▁cent":1338,"')":1339,"▁different":1340,"▁à":1341,"▁bo":1342,"▁art":1343,"--------":1344,"List":1345,"ica":1346,"▁br":1347,"gram":1348,"LE":1349,"].":1350,"ample":1351,"▁much":1352,"▁case":1353,"ati":1354,"▁final":1355,"ever":1356,"ince":1357,"ane":1358,"ina":1359,"=\\":1360,"uss":1361,"ene":1362,"▁bus":1363,"ij":1364,"▁If":1365,"▁same":1366,"ants":1367,"▁les":1368,"eb":1369,"▁para":1370,"cur":1371,"ethod":1372,"▁met":1373,"▁being":1374,"▁som":1375,"irc":1376,"alse":1377,"dd":1378,"▁while":1379,"gy":1380,"cal":1381,"utton":1382,"part":1383,"▁process":1384,"Ch":1385,"▁require":1386,"▁giv":1387,"ized":1388,"▁else":1389,"▁tra":1390,"ource":1391,"att":1392,"▁develop":1393,"▁cap":1394,"arn":1395,"fl":1396,"ouse":1397,"▁read":1398,"▁does":1399,"▁down":1400,"▁before":1401,"rop":1402,"Ex":1403,"▁X":1404,"▁fr":1405,"▁mark":1406,"ather":1407,"span":1408,"▁main":1409,"htt":1410,"▁incre":1411,"CT":1412,"ital":1413,"▁list":1414,"▁background":1415,"▁rep":1416,"▁product":1417,"▁using":1418,"▁Con":1419,"▁For":1420,"▁design":1421,"▁\\\\":1422,"▁Sh":1423,"ait":1424,"▁fact":1425,"for":1426,"bo":1427,"raw":1428,"ets":1429,"str":1430,"ger":1431,"▁!":1432,"ined":1433,"▁day":1434,"oci":1435,"\";":1436,"▁type":1437,"alth":1438,"▁those":1439,"ke":1440,"▁fam":1441,"▁ins":1442,"mathb":1443,"arm":1444,"ars":1445,"▁)":1446,"▁Tr":1447,"pre":1448,"ID":1449,"ason":1450,"▁vis":1451,"_{\\":1452,"ES":1453,"era":1454,"▁respon":1455,"▁opt":1456,"sw":1457,"▁du":1458,"over":1459,"▁cour":1460,"▁think":1461,"ually":1462,"▁mat":1463,"▁line":1464,"▁men":1465,"▁real":1466,"▁partic":1467,"ames":1468,"ural":1469,"▁effect":1470,"▁aw":1471,"▁found":1472,"eta":1473,"ament":1474,"IT":1475,"▁take":1476,"ght":1477,"▁going":1478,"▁As":1479,"▁last":1480,"yp":1481,"▁da":1482,"ole":1483,"▁die":1484,"Image":1485,"ases":1486,".\"":1487,"bl":1488,"▁De":1489,"▁na":1490,"▁pass":1491,"▁Ex":1492,"ness":1493,"na":1494,"▁best":1495,"ared":1496,"fo":1497,"fe":1498,"ava":1499,"><":1500,"▁New":1501,"▁both":1502,"ivers":1503,"▁bre":1504,"▁oper":1505,"▁System":1506,"ically":1507,"▁three":1508,"}}":1509,"hes":1510,"itle":1511,"oh":1512,"ref":1513,"ience":1514,"▁water":1515,"▁poss":1516,"▁fin":1517,"▁text":1518,"hor":1519,"ength":1520,"▁great":1521,"▁contin":1522,"rivate":1523,"ters":1524,".”":1525,"ott":1526,"Cl":1527,"ration":1528,"ral":1529,"▁proble":1530,"roll":1531,"▁Le":1532,"▁quest":1533,"ior":1534,"hip":1535,"ross":1536,"▁por":1537,"ote":1538,"ustom":1539,"ien":1540,"uf":1541,"▁run":1542,"▁id":1543,"▁true":1544,"cont":1545,"ctor":1546,"▁Ind":1547,"▁own":1548,"ams":1549,"ization":1550,"▁second":1551,"chool":1552,"urs":1553,"String":1554,"▁present":1555,"section":1556,"ron":1557,"▁cle":1558,"ology":1559,"ense":1560,"▁post":1561,"Se":1562,"pec":1563,"ved":1564,"▁current":1565,"gg":1566,"és":1567,"cript":1568,"ader":1569,"▁say":1570,"▁prof":1571,"We":1572,"▁state":1573,"▁rest":1574,"px":1575,"bs":1576,"▁print":1577,"▁dem":1578,"ision":1579,"▁>":1580,"ify":1581,"****":1582,"ault":1583,"▁support":1584,"ency":1585,"date":1586,"cul":1587,"ler":1588,"error":1589,"▁order":1590,"mod":1591,"▁world":1592,"▁top":1593,"no":1594,"begin":1595,"▁non":1596,"go":1597,"▁cond":1598,"▁var":1599,"ocument":1600,"▁during":1601,"wh":1602,"ential":1603,"rc":1604,"▁ver":1605,"lex":1606,"▁child":1607,"ny":1608,"▁must":1609,"['":1610,"ule":1611,"▁sl":1612,"ana":1613,"da":1614,"▁view":1615,"div":1616,"ism":1617,"use":1618,"^{\\":1619,"▁open":1620,"less":1621,"ze":1622,"\"]":1623,"AM":1624,"▁information":1625,"ux":1626,"ium":1627,"▁term":1628,"back":1629,"▁small":1630,"ccess":1631,"▁program":1632,"ides":1633,"akes":1634,"new":1635,"ivity":1636,"▁Ph":1637,"ists":1638,"je":1639,"▁Cl":1640,"▁business":1641,"▁commun":1642,"bers":1643,"ember":1644,"ploy":1645,"ving":1646,"▁consider":1647,"var":1648,"bre":1649,"lection":1650,"▁vol":1651,"duct":1652,"▁life":1653,"▁Pl":1654,"ush":1655,"▁stand":1656,"▁cr":1657,"▁place":1658,"face":1659,"Col":1660,"▁direct":1661,"▁um":1662,"▁level":1663,"▁una":1664,"const":1665,"Res":1666,"SE":1667,"▁techn":1668,"med":1669,"ivid":1670,"print":1671,"▁method":1672,"arge":1673,"▁il":1674,"class":1675,"']":1676,"▁static":1677,"by":1678,"td":1679,"▁proper":1680,"....":1681,"▁App":1682,"IC":1683,"acter":1684,"}(":1685,"ences":1686,"▁build":1687,"▁gre":1688,"arly":1689,"ety":1690,"itions":1691,"To":1692,"Ar":1693,"▁But":1694,"work":1695,"ique":1696,"ality":1697,"▁model":1698,"▁organ":1699,"ives":1700,"ara":1701,"▁home":1702,"▁den":1703,"Tr":1704,"▁still":1705,"View":1706,"ittle":1707,"▁*/":1708,"▁pat":1709,"▁elect":1710,"App":1711,"▁appro":1712,"▁prote":1713,"▁expl":1714,"▁row":1715,"▁dep":1716,"aterial":1717,"ission":1718,"▁try":1719,"ION":1720,"return":1721,"ves":1722,"def":1723,"action":1724,"▁care":1725,"▁power":1726,"Text":1727,"ends":1728,"▁week":1729,"lease":1730,"▁report":1731,"RO":1732,"max":1733,"▁anal":1734,"▁pur":1735,"▁tri":1736,"inc":1737,"▁lead":1738,"▁stre":1739,"▁si":1740,"type":1741,"▁There":1742,"size":1743,"▁er":1744,"▁How":1745,"requ":1746,"ished":1747,"js":1748,"ified":1749,"This":1750,"▁sal":1751,"▁cho":1752,",\"":1753,"▁po":1754,"Data":1755,"▁around":1756,"▁Fr":1757,"ación":1758,"$.":1759,"ird":1760,"');":1761,"ways":1762,"net":1763,"ability":1764,"▁Col":1765,"▁gl":1766,"eter":1767,"▁imp":1768,"ha":1769,"====":1770,"▁perform":1771,"ister":1772,"▁ref":1773,"++":1774,"▁really":1775,"▁conf":1776,"iron":1777,"▁file":1778,",”":1779,"comm":1780,"▁important":1781,"arent":1782,"';":1783,"▁field":1784,"▁/>":1785,"▁las":1786,"atic":1787,"ats":1788,"▁‘":1789,"▁interest":1790,"ination":1791,"▁%":1792,"▁cell":1793,"▁ca":1794,"▁private":1795,"▁next":1796,"la":1797,"resent":1798,"por":1799,"public":1800,"▁On":1801,"roid":1802,"ato":1803,"▁cost":1804,"ideo":1805,"pi":1806,"▁eas":1807,"umn":1808,"orn":1809,"file":1810,"▁`":1811,"arget":1812,"ee":1813,"itor":1814,"ga":1815,"UT":1816,"▁grow":1817,"ference":1818,"▁white":1819,"▁allow":1820,"adi":1821,"bol":1822,"▁Sp":1823,"▁sit":1824,"▁dev":1825,"▁without":1826,"test":1827,"LL":1828,"rem":1829,"▁je":1830,"org":1831,"▁adv":1832,"▁—":1833,"oot":1834,"▁They":1835,"▁free":1836,"▁pot":1837,"▁pop":1838,"▁Be":1839,"EX":1840,"hi":1841,"▁project":1842,"sub":1843,"As":1844,"ards":1845,"He":1846,"▁tot":1847,"▁log":1848,"▁light":1849,"ici":1850,"not":1851,"ertain":1852,"▁},":1853,"uro":1854,"▁wom":1855,"▁_":1856,"ais":1857,"▁unt":1858,"▁iss":1859,"▁head":1860,"▁come":1861,"bar":1862,"▁mult":1863,"ively":1864,"▁invest":1865,"list":1866,"den":1867,"pha":1868,"ords":1869,"▁given":1870,"▁happ":1871,"ception":1872,"oto":1873,"▁disc":1874,"stand":1875,"▁call":1876,"▁put":1877,"IS":1878,"▁wr":1879,"▁rece":1880,"une":1881,"▁Wh":1882,"▁old":1883,"▁control":1884,"▁color":1885,"ocial":1886,"▁book":1887,"▁Res":1888,"▁local":1889,"▁another":1890,"bal":1891,"inter":1892,"An":1893,"▁little":1894,"▁following":1895,"nect":1896,"▁vers":1897,"leg":1898,"yd":1899,"za":1900,"uff":1901,"iment":1902,"ours":1903,"ains":1904,"▁bas":1905,"iver":1906,"▁To":1907,"mathbf":1908,"▁lim":1909,"umber":1910,"time":1911,"▁game":1912,"reg":1913,"By":1914,"CH":1915,"ulation":1916,"ately":1917,"▁aff":1918,"▁month":1919,"▁ide":1920,"▁group":1921,"▁No":1922,"ries":1923,"▁null":1924,"ero":1925,"search":1926,"▁key":1927,"ando":1928,"lication":1929,"▁too":1930,"];":1931,"nh":1932,"▁ant":1933,"Val":1934,"▁mov":1935,"▁fun":1936,"\\[":1937,"do":1938,"▁few":1939,"rist":1940,"▁sum":1941,"▁void":1942,"opt":1943,"ama":1944,"Type":1945,"sum":1946,"ems":1947,"load":1948,"▁eng":1949,"path":1950,"▁since":1951,"ka":1952,"lete":1953,"▁Ad":1954,"▁against":1955,"▁All":1956,"▁less":1957,"▁hum":1958,"serv":1959,"util":1960,"▁pay":1961,"▁within":1962,"▁change":1963,"▁sw":1964,"▁document":1965,"icle":1966,"ks":1967,"▁En":1968,"ape":1969,"▁?":1970,"▁Amer":1971,"▁Comm":1972,"user":1973,"pport":1974,"▁occ":1975,"▁fac":1976,"Al":1977,"▁son":1978,"ued":1979,"AS":1980,"▁Co":1981,"ya":1982,"mathcal":1983,"▁Is":1984,"▁Bl":1985,"▁left":1986,"iqu":1987,"string":1988,"▁manag":1989,"▁ener":1990,"aper":1991,"▁four":1992,"ches":1993,"ume":1994,"▁super":1995,"value":1996,"ling":1997,"iod":1998,"▁chang":1999,"order":2000,"▁custom":2001,"UR":2002,"ought":2003,"▁health":2004,"nment":2005,"ET":2006,"itive":2007,"▁Or":2008,"ided":2009,"▁port":2010,"sole":2011,"ED":2012,"▁expect":2013,"ired":2014,"▁false":2015,"▁mot":2016,"▁sing":2017,"▁Pr":2018,"▁leg":2019,"ino":2020,"ording":2021,"▁size":2022,"▁check":2023,"input":2024,"▁user":2025,"▁mus":2026,"▁things":2027,"▁area":2028,"▁team":2029,"ayer":2030,"▁market":2031,"thing":2032,"men":2033,"▁including":2034,"▁hist":2035,"▁mag":2036,"().":2037,"▁ben":2038,"ump":2039,"erc":2040,"af":2041,"ui":2042,"url":2043,"ething":2044,"})":2045,"▁large":2046,"▁struct":2047,"CO":2048,"ift":2049,"▁ann":2050,"▁event":2051,"▁ret":2052,"▁always":2053,"▁meas":2054,"AD":2055,"kt":2056,"ised":2057,"▁image":2058,"uck":2059,"▁might":2060,"▁Te":2061,"ived":2062,"vious":2063,"key":2064,"▁path":2065,"▁better":2066,"▁Mar":2067,"alpha":2068,"▁string":2069,"uild":2070,"ico":2071,"▁available":2072,"▁gover":2073,"ja":2074,"▁turn":2075,"label":2076,"ently":2077,"viron":2078,"▁inc":2079,"▁object":2080,"▁ele":2081,"prime":2082,"ror":2083,"ances":2084,"$,":2085,"function":2086,"▁init":2087,"aster":2088,"ope":2089,"▁redu":2090,"▁got":2091,"='":2092,"conom":2093,"▁service":2094,"ocus":2095,"array":2096,"▁keep":2097,"vert":2098,"ía":2099,"▁addition":2100,"▁vi":2101,"▁train":2102,"ili":2103,"▁fore":2104,"▁family":2105,"ially":2106,"){":2107,"▁beh":2108,"▁school":2109,"ails":2110,"}$.":2111,"ida":2112,"▁ce":2113,"▁ein":2114,"▁results":2115,"iles":2116,"ification":2117,"▁break":2118,"For":2119,"from":2120,"▁company":2121,"rict":2122,"ering":2123,"▁tre":2124,"▁ident":2125,"▁orig":2126,"ros":2127,"py":2128,"▁String":2129,"ention":2130,"▁mar":2131,"▁space":2132,"▁total":2133,"pped":2134,"▁material":2135,"▁big":2136,"uy":2137,"iversity":2138,"box":2139,"outh":2140,"gen":2141,"button":2142,"ession":2143,"▁determ":2144,"https":2145,"▁dr":2146,"met":2147,"ended":2148,"▁~":2149,"ably":2150,"ante":2151,"oss":2152,"▁give":2153,"][":2154,"OT":2155,"▁full":2156,"></":2157,"▁US":2158,"▁example":2159,"sk":2160,"▁arg":2161,"ormal":2162,"####":2163,"▁fri":2164,"▁feel":2165,"iter":2166,"▁Man":2167,"ured":2168,"▁land":2169,"icon":2170,"▁bro":2171,"▁red":2172,"lish":2173,"▁lot":2174,"▁problem":2175,"oper":2176,"▁ill":2177,"▁mill":2178,"▁something":2179,"▁sever":2180,"▁whe":2181,"idad":2182,"▁--":2183,"mail":2184,"▁create":2185,"aces":2186,"▁law":2187,"ribut":2188,"ury":2189,"ley":2190,"▁She":2191,"elta":2192,"``":2193,"▁success":2194,"▁max":2195,"':":2196,"▁table":2197,"▁air":2198,"crib":2199,"ression":2200,"▁pour":2201,"={":2202,"ables":2203,"▁At":2204,"oney":2205,"iff":2206,"ids":2207,"▁range":2208,"opy":2209,"aim":2210,"ples":2211,"▁hard":2212,"▁possible":2213,"▁prim":2214,"Mod":2215,"▁net":2216,"pack":2217,"▁tak":2218,"po":2219,"index":2220,"AP":2221,"ita":2222,"ograph":2223,"▁days":2224,"ending":2225,"▁CO":2226,"▁Eng":2227,"▁enc":2228,"aint":2229,"▁diff":2230,"▁ge":2231,"way":2232,"▁side":2233,"▁ask":2234,"arrow":2235,"ww":2236,"pper":2237,"enn":2238,"▁press":2239,"▁mean":2240,"width":2241,"cd":2242,"acy":2243,"itch":2244,"));":2245,"ones":2246,"cle":2247,"./":2248,"▁bi":2249,"nal":2250,"Ind":2251,"includ":2252,"▁experience":2253,"▁low":2254,"Ob":2255,"ura":2256,"▁kind":2257,"ido":2258,"AC":2259,"orth":2260,"```":2261,"▁Su":2262,"▁indust":2263,"mp":2264,"▁based":2265,"atus":2266,"ican":2267,"fect":2268,"ources":2269,"▁flow":2270,"▁..":2271,"▁offer":2272,"En":2273,"▁plan":2274,"▁&&":2275,"}=":2276,"respon":2277,"▁able":2278,"▁employ":2279,"atter":2280,"▁circ":2281,"Pl":2282,"creen":2283,"▁body":2284,"ev":2285,"▁input":2286,"atures":2287,"irt":2288,"▁study":2289,"▁impro":2290,"equ":2291,"ream":2292,"▁never":2293,"mu":2294,"▁represent":2295,"bt":2296,"▁cu":2297,"▁called":2298,"▁Gr":2299,"arr":2300,"dis":2301,"▁black":2302,"▁love":2303,"plic":2304,"▁prom":2305,"▁hold":2306,"www":2307,"▁ris":2308,"nder":2309,"ffic":2310,"▁La":2311,"▁inte":2312,"rt":2313,"▁social":2314,"▁energy":2315,"▁due":2316,"▁food":2317,"▁times":2318,"IM":2319,"icro":2320,"lected":2321,"aps":2322,"▁above":2323,"ready":2324,"▁«":2325,"On":2326,"lt":2327,"▁far":2328,"ories":2329,"▁Br":2330,"▁hal":2331,"▁Qu":2332,"▁typ":2333,"kan":2334,"▁mom":2335,"▁access":2336,"▁special":2337,"▁pract":2338,"Un":2339,"aff":2340,"AG":2341,"HE":2342,"▁won":2343,"place":2344,"])":2345,"ponent":2346,"▁ter":2347,"▁exc":2348,"ini":2349,"----------------":2350,"▁means":2351,"▁short":2352,"▁nat":2353,"▁gen":2354,"Wh":2355,"▁yang":2356,"▁move":2357,"ervice":2358,"▁beg":2359,"vironment":2360,"ohn":2361,"▁respect":2362,"head":2363,"imal":2364,"▁ste":2365,"▁sat":2366,"ih":2367,"hold":2368,"amma":2369,"▁!=":2370,"▁working":2371,"ieve":2372,"▁period":2373,"▁provide":2374,"abor":2375,"▁exist":2376,"ING":2377,"▁flo":2378,"▁htt":2379,"ither":2380,"▁fa":2381,"http":2382,"src":2383,"cer":2384,"If":2385,"quest":2386,"count":2387,"▁stock":2388,"▁shall":2389,"▁request":2390,"off":2391,"Time":2392,"▁dan":2393,"ysis":2394,"▁general":2395,"▁cou":2396,"▁character":2397,"▁hig":2398,"▁meet":2399,"epend":2400,"▁El":2401,"▁prob":2402,"oll":2403,"▁dans":2404,"▁account":2405,"param":2406,"link":2407,"▁individ":2408,"ND":2409,"▁amount":2410,"User":2411,"▁sem":2412,"▁sure":2413,"▁cover":2414,"▁country":2415,"▁;":2416,"sem":2417,"side":2418,"▁What":2419,"aring":2420,"ula":2421,"ware":2422,"▁comb":2423,"ste":2424,".)":2425,"mit":2426,"▁neg":2427,"▁talk":2428,")\\":2429,"Item":2430,"▁development":2431,"su":2432,"▁plus":2433,"▁ang":2434,"ude":2435,"▁step":2436,"va":2437,"ett":2438,"rel":2439,"cription":2440,"mn":2441,"angle":2442,"ored":2443,"ager":2444,"hr":2445,"igned":2446,"▁particular":2447,"▁question":2448,"▁Che":2449,"lobal":2450,"▁maj":2451,"▁position":2452,"▁children":2453,"ounter":2454,"sl":2455,"roller":2456,"swer":2457,"arl":2458,"zy":2459,"▁qui":2460,"▁video":2461,"init":2462,"ender":2463,"▁abs":2464,"}$,":2465,"▁certain":2466,"ENT":2467,"▁uh":2468,"mat":2469,"apt":2470,"▁research":2471,"▁fut":2472,"ilar":2473,"▁dat":2474,"▁width":2475,"▁having":2476,"ands":2477,"▁pri":2478,"▁Cont":2479,"▁action":2480,"▁dé":2481,"ambda":2482,"pping":2483,"▁[]":2484,"▁room":2485,"▁values":2486,"▁treat":2487,"▁That":2488,"▁pas":2489,"ores":2490,"▁<<":2491,"irl":2492,"olution":2493,"ldots":2494,"▁Sc":2495,"oad":2496,"thers":2497,"IG":2498,"now":2499,"iving":2500,"color":2501,"iled":2502,"▁course":2503,"▁content":2504,"idd":2505,"ison":2506,"▁along":2507,"icy":2508,"ione":2509,"▁obtain":2510,"unt":2511,"▁Am":2512,"▁contain":2513,"eral":2514,"▁already":2515,"word":2516,"ache":2517,"▁services":2518,"rect":2519,"rror":2520,"loc":2521,"img":2522,"ito":2523,"▁When":2524,"▁van":2525,"▁done":2526,"▁bar":2527,"▁Cent":2528,"▁trad":2529,"ption":2530,"▁display":2531,"ibr":2532,"Button":2533,"▁une":2534,"Size":2535,"▁vo":2536,"idence":2537,"start":2538,"▁making":2539,"ados":2540,"Form":2541,"▁offic":2542,"You":2543,"▁understand":2544,"ales":2545,"uration":2546,"▁fund":2547,"\".":2548,"▁clos":2549,"ched":2550,"▁Me":2551,"style":2552,"andom":2553,"body":2554,"yt":2555,"AB":2556,"clus":2557,"▁past":2558,"stit":2559,"book":2560,"▁toget":2561,"▁response":2562,"▁Im":2563,"dict":2564,"▁together":2565,"▁complet":2566,"oin":2567,"pg":2568,"▁Min":2569,"irm":2570,"▁τ":2571,"ilit":2572,"▁dom":2573,"imum":2574,"▁necess":2575,"▁signific":2576,"using":2577,"ibility":2578,"ills":2579,"icht":2580,"▁temper":2581,"lev":2582,"▁until":2583,"▁dri":2584,"ension":2585,"▁bit":2586,"▁page":2587,"▁como":2588,"▁close":2589,"▁Pol":2590,"State":2591,"Element":2592,"▁indic":2593,"▁style":2594,"US":2595,"length":2596,"sel":2597,"▁away":2598,"ties":2599,"▁today":2600,"Par":2601,"CC":2602,"▁activ":2603,"▁several":2604,"And":2605,"▁Cal":2606,"Value":2607,"▁rate":2608,"▁dig":2609,"Sh":2610,"iful":2611,"▁individual":2612,"▁These":2613,"oud":2614,"uation":2615,"ken":2616,"board":2617,"▁University":2618,"▁required":2619,"▁cas":2620,"▁mo":2621,"▁However":2622,"uel":2623,"▁house":2624,"orld":2625,"EM":2626,"lor":2627,"▁single":2628,"umer":2629,"▁ti":2630,"pat":2631,"▁error":2632,"▁econom":2633,"sv":2634,"▁Ab":2635,"▁lik":2636,"ano":2637,"({":2638,"rodu":2639,"ye":2640,"rite":2641,"amos":2642,"ief":2643,"▁looking":2644,"ruction":2645,"▁young":2646,"html":2647,"▁Mr":2648,"▁often":2649,"▁strong":2650,"▁says":2651,"ée":2652,"▁cult":2653,"ella":2654,"▁creat":2655,"ente":2656,"▁job":2657,"▁appear":2658,"ney":2659,"▁least":2660,"▁Can":2661,"▁sus":2662,"ules":2663,"File":2664,"vis":2665,"▁include":2666,"▁link":2667,"urch":2668,"▁city":2669,"▁ess":2670,"▁later":2671,"▁thing":2672,"▁products":2673,"chen":2674,"▁focus":2675,"▁larg":2676,"▁why":2677,"Add":2678,"autiful":2679,"arning":2680,"▁Par":2681,"light":2682,"▁known":2683,"▁base":2684,"▁With":2685,"▁invol":2686,"▁au":2687,"ding":2688,"script":2689,"▁mit":2690,"▁seg":2691,"▁hab":2692,"ani":2693,"án":2694,"▁describ":2695,"omet":2696,"main":2697,"All":2698,"▁State":2699,"▁human":2700,"▁IN":2701,"angu":2702,"▁discuss":2703,"title":2704,"▁government":2705,"▁os":2706,"OD":2707,"ising":2708,"state":2709,"▁Sch":2710,"Le":2711,"wards":2712,"▁author":2713,"▁Ass":2714,"▁major":2715,"▁benef":2716,"▁sent":2717,"fil":2718,"ln":2719,"ua":2720,"▁students":2721,"▁money":2722,"post":2723,"map":2724,"query":2725,"▁href":2726,"cy":2727,"▁reason":2728,"((":2729,"ca":2730,"Qu":2731,"▁mer":2732,"ators":2733,"ips":2734,"▁become":2735,"$\\":2736,"▁Med":2737,"▁pack":2738,"▁members":2739,"▁comput":2740,"▁points":2741,"▁conc":2742,"raft":2743,"elt":2744,"▁original":2745,"image":2746,"▁thought":2747,"▁pa":2748,"my":2749,"pen":2750,"▁TEXT":2751,"▁kh":2752,"▁infl":2753,"▁param":2754,"▁calcul":2755,"▁Des":2756,"ios":2757,"istic":2758,"ille":2759,"rap":2760,"imate":2761,"ena":2762,"De":2763,"▁cam":2764,"▁+=":2765,"▁upon":2766,"▁quality":2767,"plement":2768,"▁phys":2769,"▁target":2770,"▁observ":2771,"osp":2772,"▁Car":2773,"utes":2774,"▁pub":2775,"IL":2776,"▁section":2777,"▁compon":2778,"▁pod":2779,"▁educ":2780,"▁further":2781,"cret":2782,"▁gi":2783,"▁win":2784,"lished":2785,"▁dire":2786,"▁ou":2787,"where":2788,"▁Christ":2789,"room":2790,"▁May":2791,"OS":2792,"▁block":2793,"beta":2794,"▁mor":2795,"IR":2796,"Path":2797,"▁similar":2798,"▁whether":2799,"▁common":2800,"lar":2801,"Man":2802,"********":2803,"rown":2804,"vo":2805,"ports":2806,"▁connect":2807,"Object":2808,"rix":2809,"most":2810,"▁ng":2811,"▁compet":2812,"iones":2813,"}{\\":2814,"ync":2815,"▁relations":2816,"▁ri":2817,"én":2818,"▁phot":2819,"▁price":2820,"des":2821,"EL":2822,"▁illust":2823,"ony":2824,"▁face":2825,"▁code":2826,"▁hom":2827,"ival":2828,"true":2829,"▁Per":2830,"▁community":2831,"phi":2832,"▁future":2833,"alt":2834,"df":2835,"Box":2836,"Get":2837,"▁element":2838,"▁season":2839,"avor":2840,"ube":2841,"tem":2842,"▁mass":2843,"▁John":2844,"igma":2845,"▁across":2846,"mon":2847,"▁address":2848,"ilities":2849,"▁record":2850,"▁associ":2851,"▁hot":2852,"▁below":2853,"▁dest":2854,"gress":2855,"ster":2856,"▁Ag":2857,"▁site":2858,"▁date":2859,"Exception":2860,"▁potential":2861,"ii":2862,"▁bring":2863,"▁das":2864,"▁conditions":2865,"▁respons":2866,"▁tell":2867,"ogle":2868,"asing":2869,"verage":2870,"▁night":2871,"▁org":2872,"ils":2873,"▁learn":2874,"}=\\":2875,"uz":2876,"▁environment":2877,"ilt":2878,"urope":2879,"used":2880,"itted":2881,")(":2882,"▁espec":2883,"▁cut":2884,"umb":2885,"▁solution":2886,"fort":2887,"▁Cor":2888,"len":2889,"▁crit":2890,"▁seen":2891,"position":2892,"utions":2893,"▁polit":2894,"sq":2895,"▁either":2896,"▁moment":2897,"though":2898,"▁font":2899,"▁bir":2900,")=":2901,"Color":2902,"lambda":2903,"▁enough":2904,"iam":2905,"▁online":2906,"▁doing":2907,"▁exam":2908,"▁five":2909,"Error":2910,"▁concept":2911,"▁others":2912,"With":2913,"▁$(":2914,"▁array":2915,"Event":2916,"▁Ste":2917,"Key":2918,"▁ma":2919,"▁shown":2920,"())":2921,"Bl":2922,"ora":2923,"ades":2924,"quad":2925,"ober":2926,"ki":2927,"pportun":2928,"PI":2929,"▁visit":2930,"pose":2931,"▁Act":2932,"come":2933,"circ":2934,"▁taken":2935,"Or":2936,"ribute":2937,"▁ist":2938,"▁previous":2939,"▁writ":2940,"▁specific":2941,"earch":2942,"Index":2943,"resh":2944,"ological":2945,"ols":2946,"cho":2947,"▁soft":2948,"▁claim":2949,"▁review":2950,"▁near":2951,"▁div":2952,"▁camp":2953,"▁index":2954,"▁needs":2955,"▁wall":2956,"▁vector":2957,"▁My":2958,"▁increase":2959,"▁console":2960,"ali":2961,"ULL":2962,"____":2963,"▁height":2964,"ogn":2965,"▁estab":2966,"▁sche":2967,"▁Ge":2968,"▁von":2969,"iple":2970,"▁sam":2971,"▁version":2972,"lick":2973,"▁inf":2974,"▁among":2975,"▁various":2976,"▁pers":2977,"▁Do":2978,"ounds":2979,"▁sugg":2980,"▁personal":2981,"oute":2982,"▁Ne":2983,"java":2984,"▁clear":2985,"icult":2986,"▁integr":2987,"Ph":2988,"▁Dr":2989,"▁came":2990,"▁makes":2991,"▁percent":2992,"nection":2993,"field":2994,"▁Bo":2995,"▁ten":2996,"unch":2997,"ni":2998,"▁suggest":2999,"olds":3000,"▁Ed":3001,"mathbb":3002,"ba":3003,"▁series":3004,"▁simple":3005,"▁women":3006,"▁deg":3007,"ried":3008,"ette":3009,"▁sens":3010,"▁tw":3011,"package":3012,"▁message":3013,"ét":3014,"ML":3015,"▁ir":3016,"▁once":3017,"uly":3018,"ges":3019,"▁million":3020,"gl":3021,"▁paper":3022,"▁mi":3023,"▁significant":3024,"apter":3025,"font":3026,"empt":3027,"aur":3028,"▁though":3029,"▁cases":3030,"Context":3031,"vec":3032,"▁OF":3033,"▁United":3034,"ceed":3035,"ixed":3036,"▁actually":3037,"▁front":3038,"astic":3039,"▁Gu":3040,"▁sil":3041,"▁early":3042,"iding":3043,"▁war":3044,"▁begin":3045,"chan":3046,"▁One":3047,"▁Reg":3048,"▁word":3049,"medi":3050,"▁subject":3051,"▁pan":3052,"▁contact":3053,"create":3054,"▁II":3055,"▁mind":3056,"ops":3057,"▁American":3058,"ribution":3059,"▁property":3060,"▁analysis":3061,"joy":3062,"▁box":3063,"mas":3064,"========":3065,"mark":3066,"api":3067,"▁default":3068,"▁\"\"":3069,"Date":3070,"▁err":3071,"hib":3072,"▁however":3073,"anks":3074,"urb":3075,"What":3076,"▁ber":3077,"OG":3078,"Test":3079,"Pre":3080,"cm":3081,"▁whole":3082,"atform":3083,"ham":3084,"ged":3085,"▁ap":3086,"ball":3087,"year":3088,"ites":3089,"▁Intern":3090,"▁network":3091,"ises":3092,"result":3093,"▁heart":3094,"▁load":3095,"iddle":3096,"Aut":3097,"▁higher":3098,"▁buy":3099,"▁lower":3100,"▁production":3101,"▁opportun":3102,"▁took":3103,"json":3104,"▁parent":3105,"▁Dis":3106,"▁);":3107,"▁walk":3108,"plit":3109,"▁...":3110,"▁blue":3111,"▁changes":3112,"▁plant":3113,"▁card":3114,"inary":3115,"▁easy":3116,"▁performance":3117,"▁source":3118,"▁application":3119,"aves":3120,"ires":3121,"▁added":3122,"UN":3123,"num":3124,"otal":3125,"▁half":3126,"ered":3127,"dom":3128,"roups":3129,"oph":3130,"uj":3131,"▁q":3132,"▁graph":3133,"ias":3134,"▁terms":3135,"▁natural":3136,"istance":3137,"▁pattern":3138,"▁surface":3139,"config":3140,"▁By":3141,"▁Go":3142,"tes":3143,"IV":3144,"▁sun":3145,"OL":3146,"append":3147,"No":3148,"▁deal":3149,"▁York":3150,"▁arm":3151,"lin":3152,"aced":3153,"Pr":3154,"zen":3155,"▁didn":3156,"▁util":3157,"▁quant":3158,"▁ever":3159,"▁teach":3160,"▁building":3161,"▁pie":3162,"▁Not":3163,"▁Let":3164,"▁months":3165,"▁mach":3166,"};":3167,"▁systems":3168,"▁fall":3169,"ko":3170,"(),":3171,"ging":3172,"▁God":3173,"[]":3174,"ese":3175,"▁ach":3176,"There":3177,"ledge":3178,"ala":3179,"▁separ":3180,"▁ens":3181,"▁zu":3182,"▁yet":3183,"▁express":3184,"▁title":3185,"▁quick":3186,"lim":3187,"▁weight":3188,"▁green":3189,"▁Dep":3190,"ework":3191,"eters":3192,"▁shows":3193,".;":3194,"posed":3195,"At":3196,"▁options":3197,"ained":3198,"▁pict":3199,"▁blo":3200,"pm":3201,"times":3202,"pan":3203,"down":3204,"ners":3205,"Inter":3206,"fully":3207,"▁provided":3208,"uit":3209,"trans":3210,"stract":3211,"ns":3212,"▁role":3213,"formation":3214,"▁protect":3215,"▁Val":3216,"inner":3217,"▁length":3218,"iet":3219,"▁wood":3220,"db":3221,"▁ground":3222,"▁normal":3223,"▁financ":3224,"▁tax":3225,"images":3226,"▁hor":3227,"center":3228,"▁cells":3229,"▁woman":3230,"▁growth":3231,"▁Europe":3232,"ellow":3233,"▁dam":3234,"Group":3235,"▁hours":3236,"wa":3237,"sequ":3238,"▁answer":3239,"▁live":3240,"▁according":3241,"Act":3242,"bit":3243,"ima":3244,"Int":3245,"Sc":3246,"▁Dec":3247,"^{-":3248,"▁structure":3249,"▁board":3250,"info":3251,"nes":3252,"▁difficult":3253,"How":3254,"▁age":3255,"Be":3256,"▁cannot":3257,"▁android":3258,"ti":3259,"include":3260,"▁Aut":3261,"▁ho":3262,"▁->":3263,"▁cy":3264,"itional":3265,"▁story":3266,"▁alg":3267,"▁search":3268,"ivo":3269,"verse":3270,"▁mis":3271,"▁started":3272,"Request":3273,"itting":3274,"▁output":3275,"▁went":3276,"mary":3277,"rug":3278,"▁introdu":3279,"▁||":3280,"▁cook":3281,"ario":3282,"▁Pre":3283,"point":3284,"enu":3285,"Out":3286,"mm":3287,"▁comes":3288,"▁girl":3289,"content":3290,"▁industry":3291,"▁config":3292,"▁engine":3293,"\"),":3294,"▁intern":3295,"ilon":3296,"▁six":3297,"orage":3298,"▁isol":3299,"▁recomm":3300,"▁loss":3301,"▁har":3302,"▁autom":3303,"code":3304,"▁double":3305,"cast":3306,"Set":3307,"/*":3308,"ben":3309,"▁particip":3310,"▁getting":3311,"▁bal":3312,"▁clean":3313,"igation":3314,"hel":3315,"Des":3316,"udio":3317,"rie":3318,"▁center":3319,"top":3320,"acc":3321,"atory":3322,"▁coll":3323,"▁complex":3324,"▁management":3325,"▁foot":3326,"ening":3327,"page":3328,"\"><":3329,"current":3330,"uments":3331,"anguage":3332,"plate":3333,"▁improve":3334,"▁prop":3335,"elle":3336,"▁media":3337,"ör":3338,"▁perfect":3339,"IP":3340,"curity":3341,"urg":3342,"just":3343,"▁applic":3344,"rial":3345,"}(\\":3346,"▁temperature":3347,"▁share":3348,"▁National":3349,"ened":3350,"▁Ser":3351,"▁refer":3352,"▁taking":3353,"rav":3354,"SS":3355,"jpg":3356,"▁frequ":3357,"Ad":3358,"iti":3359,"▁doesn":3360,"▁Part":3361,"see":3362,"group":3363,"▁etc":3364,"▁dim":3365,"▁chall":3366,"▁exec":3367,"ining":3368,"ounc":3369,"ication":3370,"▁Mod":3371,"▁court":3372,"atal":3373,"UL":3374,"▁sch":3375,"▁enjoy":3376,"with":3377,"rightarrow":3378,"▁java":3379,"▁features":3380,"itten":3381,"▁initial":3382,"DE":3383,"▁cross":3384,"ags":3385,"▁Em":3386,"eq":3387,"▁standard":3388,"▁problems":3389,"elling":3390,"HT":3391,"▁history":3392,"\\\\":3393,"▁City":3394,"▁bed":3395,"▁track":3396,"Of":3397,"isf":3398,"Config":3399,"▁Af":3400,"unc":3401,"ply":3402,"Service":3403,"oke":3404,"▁impact":3405,"argin":3406,"▁continue":3407,"▁film":3408,"ements":3409,"▁princ":3410,"▁areas":3411,"ydro":3412,"▁web":3413,"▁World":3414,"PE":3415,"idge":3416,"▁squ":3417,"▁measure":3418,"find":3419,"▁lat":3420,"Result":3421,"void":3422,"▁pati":3423,"[\"":3424,"▁ut":3425,"▁training":3426,"ucle":3427,"rip":3428,"annel":3429,"▁continu":3430,"▁necessary":3431,"▁region":3432,"hing":3433,"aged":3434,"leq":3435,"operator":3436,"▁complete":3437,"▁nature":3438,"▁questions":3439,"ufact":3440,"cel":3441,"▁Add":3442,"▁),":3443,"bon":3444,"iting":3445,"▁implement":3446,"nav":3447,"▁works":3448,"▁beautiful":3449,"oved":3450,"▁Rep":3451,"igen":3452,"▁Comp":3453,"Log":3454,"▁entre":3455,"▁player":3456,"▁()":3457,"aging":3458,"▁grand":3459,"Array":3460,"........":3461,"Page":3462,"▁dos":3463,"asi":3464,"Controller":3465,"▁third":3466,"IST":3467,"osition":3468,"▁words":3469,"cdot":3470,"▁told":3471,"uest":3472,"vi":3473,"change":3474,"▁Jan":3475,"▁almost":3476,"▁technology":3477,"odes":3478,"▁States":3479,"▁global":3480,"▁issue":3481,"▁map":3482,"▁item":3483,"lector":3484,"ynam":3485,"▁relationship":3486,"agn":3487,"▁condition":3488,"▁stay":3489,"ouch":3490,"▁dise":3491,"New":3492,"UM":3493,"Loc":3494,"▁correspon":3495,"▁pressure":3496,"OM":3497,"▁affect":3498,"▁task":3499,"▁After":3500,"xim":3501,"exp":3502,"obile":3503,"▁Trans":3504,"▁DE":3505,"▁matter":3506,"partial":3507,"▁cred":3508,"ky":3509,"Def":3510,"gamma":3511,"▁Now":3512,"Sp":3513,"▁rad":3514,"▁ep":3515,"xy":3516,"▁opp":3517,"▁compan":3518,"boldsymbol":3519,"▁od":3520,"▁auf":3521,"▁imm":3522,"hand":3523,"▁match":3524,"▁accept":3525,"ret":3526,"▁Bar":3527,"▁held":3528,"\").":3529,"▁speed":3530,"bed":3531,"▁entire":3532,"▁music":3533,"▁host":3534,"Fr":3535,"check":3536,"▁South":3537,"▁contract":3538,"itte":3539,"▁sort":3540,"ached":3541,"ride":3542,"▁/**":3543,"aving":3544,"izing":3545,"ona":3546,"itter":3547,"▁treatment":3548,"mission":3549,"lying":3550,"reen":3551,"▁Fl":3552,"ilde":3553,"▁expected":3554,"▁ol":3555,"▁anim":3556,"cial":3557,"ao":3558,"▁sou":3559,"zi":3560,"ador":3561,"tre":3562,"▁road":3563,"▁especially":3564,"▁bad":3565,"zer":3566,"rows":3567,"▁Will":3568,"Component":3569,"uh":3570,"ér":3571,"▁Pres":3572,"▁grad":3573,"▁Then":3574,"▁ball":3575,"▁Gener":3576,"▁travel":3577,"▁regard":3578,"▁fire":3579,"▁miss":3580,"▁pen":3581,"▁Count":3582,"▁button":3583,"▁minutes":3584,"kn":3585,"▁approach":3586,"▁gas":3587,"oj":3588,"anch":3589,"▁idea":3590,"▁rather":3591,"▁profess":3592,"▁column":3593,"▁screen":3594,"▁via":3595,"So":3596,"▁Mon":3597,"▁everything":3598,"ello":3599,"lege":3600,"!!":3601,"Over":3602,"▁pain":3603,"nov":3604,"▁Int":3605,"▁ya":3606,"Class":3607,"iy":3608,"\",\"":3609,"▁correct":3610,"True":3611,"OC":3612,"▁valid":3613,"▁issues":3614,"▁sin":3615,"▁sym":3616,"▁quite":3617,"Not":3618,"Layout":3619,"▁pick":3620,"▁qual":3621,"▁needed":3622,"▁death":3623,"anced":3624,"▁jour":3625,"▁Um":3626,"▁unit":3627,"▁List":3628,"endo":3629,"ector":3630,"▁NULL":3631,"osph":3632,"▁purch":3633,"model":3634,"▁nom":3635,"▁og":3636,"▁Aust":3637,"pass":3638,"▁member":3639,"message":3640,"ATION":3641,"Count":3642,"selves":3643,"▁tu":3644,"▁star":3645,"ées":3646,"NA":3647,"▁jud":3648,"▁ax":3649,"▁feed":3650,"▁friend":3651,"▁Ob":3652,"inst":3653,"Field":3654,"ola":3655,"Action":3656,"▁mas":3657,"▁average":3658,"▁patients":3659,"▁cause":3660,"▁groups":3661,"▁context":3662,"mes":3663,"▁mal":3664,"version":3665,"uses":3666,"▁office":3667,"arth":3668,"ensive":3669,"▁sett":3670,"het":3671,"▁↑":3672,"▁positive":3673,"zo":3674,"▁sec":3675,"▁agre":3676,"When":3677,"▁]":3678,"pa":3679,"mt":3680,"cos":3681,"▁Mc":3682,"osed":3683,"RA":3684,"▁photo":3685,"▁client":3686,"bor":3687,"Ste":3688,"sigma":3689,"▁deb":3690,"ige":3691,"▁ST":3692,"yes":3693,"apan":3694,"omega":3695,"▁oil":3696,"rho":3697,"▁forward":3698,"aya":3699,"Number":3700,"▁exact":3701,"else":3702,"▁THE":3703,"▁website":3704,"▁types":3705,"▁saf":3706,"▁received":3707,"▁este":3708,"▁lines":3709,"▁created":3710,"ika":3711,"▁alt":3712,"▁park":3713,"▁tour":3714,"▁bound":3715,"▁Inter":3716,"▁Pe":3717,"▁src":3718,"▁hon":3719,"▁install":3720,"vol":3721,"▁extra":3722,"ych":3723,"▁seem":3724,"option":3725,"reate":3726,"▁prior":3727,"acity":3728,"II":3729,"▁wait":3730,"▁Acc":3731,"▁pet":3732,"leep":3733,"css":3734,"ris":3735,"▁bill":3736,"PS":3737,"run":3738,"▁Sm":3739,"rest":3740,"Map":3741,"▁Sim":3742,"ady":3743,"▁li":3744,"▁mechan":3745,"▁constant":3746,"click":3747,"▁effort":3748,"theta":3749,"▁probably":3750,"ordin":3751,"▁effects":3752,"▁satisf":3753,"ete":3754,"System":3755,"php":3756,"▁Pa":3757,"▁watch":3758,"▁nam":3759,"▁contr":3760,"false":3761,"▁modern":3762,"▁except":3763,"▁Mark":3764,"▁levels":3765,"iday":3766,"▁decl":3767,"thon":3768,"Line":3769,"ria":3770,"Su":3771,"▁considered":3772,"mar":3773,"▁likely":3774,"ès":3775,"▁af":3776,"istry":3777,"▁consist":3778,"▁email":3779,"car":3780,"aker":3781,"▁Park":3782,"agram":3783,"▁:=":3784,"▁national":3785,"▁https":3786,"▁concern":3787,"icles":3788,"▁location":3789,"md":3790,"oon":3791,")}":3792,"▁Log":3793,"ients":3794,"iques":3795,"▁fre":3796,"But":3797,"▁radi":3798,"▁limit":3799,"▁ago":3800,"contain":3801,"ère":3802,"ku":3803,"ming":3804,"▁occur":3805,"▁Art":3806,"ras":3807,"▁sy":3808,"▁activity":3809,"atur":3810,"▁für":3811,"▁fast":3812,"ospital":3813,"idget":3814,"▁remain":3815,"▁related":3816,"▁obtained":3817,"▁party":3818,"▁===":3819,"anning":3820,"Is":3821,"height":3822,"▁pi":3823,")$.":3824,"output":3825,"lied":3826,"▁Ver":3827,"▁π":3828,"▁update":3829,"inn":3830,"▁assert":3831,"▁hope":3832,"▁methods":3833,"▁ing":3834,"▁arr":3835,"Ab":3836,"▁accom":3837,"▁compl":3838,"$-":3839,"▁prec":3840,"ensity":3841,"▁couple":3842,"println":3843,"eff":3844,"ela":3845,"actions":3846,"itude":3847,"▁experi":3848,"▁spect":3849,"▁More":3850,"ees":3851,"▁vot":3852,"▁believe":3853,"aligned":3854,"▁tim":3855,"▁Sw":3856,"airs":3857,"ira":3858,"▁risk":3859,"▁equip":3860,"▁knowledge":3861,"▁Aug":3862,"▁attack":3863,"▁anything":3864,"▁sequ":3865,"CE":3866,"Input":3867,"adding":3868,"From":3869,"▁favor":3870,"▁cry":3871,"encia":3872,"▁arch":3873,"▁news":3874,"sm":3875,"▁Cour":3876,"▁India":3877,"Up":3878,"Ed":3879,"▁article":3880,"▁everyone":3881,"▁Russ":3882,"▁cand":3883,"▁models":3884,"▁catch":3885,"▁mes":3886,"cor":3887,"▁influ":3888,"▁parts":3889,"▁friends":3890,"▁fit":3891,"iction":3892,"▁North":3893,"▁staff":3894,"▁companies":3895,"▁concent":3896,"ocket":3897,"sec":3898,"UE":3899,"▁unique":3900,"▁running":3901,"cover":3902,"▁conduct":3903,"▁AND":3904,"▁takes":3905,"▁illustration":3906,"▁micro":3907,"rate":3908,"▁stop":3909,"Delta":3910,"alam":3911,"Ent":3912,"iva":3913,"▁recogn":3914,"▁provides":3915,"valid":3916,"▁asked":3917,"▁learning":3918,"▁wel":3919,"Node":3920,"▁ü":3921,"▁mil":3922,"▁device":3923,"▁equal":3924,"attle":3925,"▁events":3926,"anger":3927,"My":3928,"oe":3929,"▁ful":3930,"▁manufact":3931,"▁lib":3932,"acing":3933,"▁store":3934,"kay":3935,"request":3936,"▁Gover":3937,"▁additional":3938,"ipal":3939,"▁RE":3940,"▁window":3941,"▁ord":3942,"▁predict":3943,"mente":3944,"cing":3945,"▁<-":3946,"tty":3947,"abase":3948,"▁usually":3949,"▁outside":3950,"aily":3951,"sqrt":3952,"▁reported":3953,"▁Cons":3954,")-":3955,"ependent":3956,"▁hol":3957,"delta":3958,"är":3959,"vas":3960,"Content":3961,"▁lab":3962,"▁het":3963,"▁dog":3964,"▁sn":3965,"iger":3966,"▁recent":3967,"▁blood":3968,"▁becom":3969,"▁countries":3970,"Code":3971,"▁Ac":3972,"########":3973,"▁isolated":3974,"sets":3975,"FA":3976,"}}\\":3977,"status":3978,"▁High":3979,"▁elements":3980,"ights":3981,"▁icon":3982,"tab":3983,"▁σ":3984,"▁await":3985,"ponse":3986,"▁ja":3987,"Dis":3988,"').":3989,"sa":3990,"▁behav":3991,"agement":3992,"avy":3993,"▁regular":3994,"omb":3995,"▁West":3996,"▁click":3997,"▁ple":3998,"ead":3999,"ista":4000,"RAM":4001,"▁itself":4002,"▁items":4003,"atives":4004,"▁Red":4005,"▁bank":4006,"▁pal":4007,"▁Phys":4008,"▁fem":4009,"▁ways":4010,".-":4011,"▁select":4012,"▁copy":4013,"▁prep":4014,"▁financial":4015,"MA":4016,"▁increased":4017,"SR":4018,"char":4019,"next":4020,"▁trying":4021,"▁images":4022,"fty":4023,"▁eval":4024,"can":4025,"▁living":4026,"▁maintain":4027,"istics":4028,"PO":4029,"▁round":4030,"▁mount":4031,"▁inside":4032,"▁details":4033,"▁longer":4034,"▁coming":4035,"▁Est":4036,"▁decision":4037,"ega":4038,"enced":4039,"▁glass":4040,"ternal":4041,"▁Rec":4042,"▁equation":4043,"▁write":4044,"▁Oct":4045,"One":4046,"build":4047,"train":4048,"uer":4049,"▁depend":4050,"▁force":4051,"▁popular":4052,"▁evidence":4053,"▁hands":4054,"._":4055,"▁band":4056,"show":4057,"▁acid":4058,"▁transfer":4059,"▁nos":4060,"▁His":4061,"▁•":4062,"case":4063,"▁feature":4064,"ATE":4065,"▁mention":4066,"▁ps":4067,"▁School":4068,"▁repl":4069,"oms":4070,"▁From":4071,"▁fra":4072,"cha":4073,"▁former":4074,"ifier":4075,"▁random":4076,"ponents":4077,"▁Some":4078,"orem":4079,"▁numbers":4080,"▁soon":4081,"emy":4082,"vey":4083,"▁administ":4084,"▁difference":4085,"▁policy":4086,"▁transform":4087,"Manager":4088,"▁ni":4089,"▁α":4090,"alle":4091,"rim":4092,"La":4093,"Model":4094,"▁Har":4095,"▁described":4096,"display":4097,"▁games":4098,"sim":4099,"Hand":4100,"▁viol":4101,"El":4102,"▁behind":4103,"uary":4104,"▁status":4105,"mical":4106,"unk":4107,"uge":4108,"▁Get":4109,"▁draw":4110,"TH":4111,"▁Stud":4112,"▁command":4113,"▁education":4114,"ares":4115,"gi":4116,"▁dark":4117,"lebr":4118,"kl":4119,"▁http":4120,"player":4121,"▁prevent":4122,"▁veh":4123,"▁saw":4124,"older":4125,"oo":4126,"ité":4127,"Table":4128,"▁included":4129,"▁stress":4130,"perty":4131,"Bar":4132,"▁nothing":4133,"agon":4134,"fficient":4135,"▁gives":4136,"▁states":4137,"Reg":4138,"gu":4139,"▁someone":4140,"anti":4141,"▁tree":4142,"▁nil":4143,"▁streng":4144,"tau":4145,"ental":4146,"active":4147,"di":4148,"usion":4149,"▁send":4150,"ondon":4151,"vest":4152,"”.":4153,"Math":4154,"▁nov":4155,"Point":4156,"▁wanted":4157,"rid":4158,"▁Sci":4159,"▁security":4160,"rat":4161,"▁San":4162,"rak":4163,"▁demand":4164,"▁sound":4165,"▁platform":4166,"wise":4167,"▁Us":4168,"▁__":4169,"▁sen":4170,"▁multiple":4171,"ethyl":4172,"png":4173,"ql":4174,"itable":4175,"▁wer":4176,"▁seems":4177,"▁multi":4178,"▁proced":4179,"▁Afric":4180,"▁estim":4181,"arter":4182,"▁properties":4183,"▁dro":4184,"▁Germ":4185,"▁activities":4186,"▁option":4187,"infty":4188,"block":4189,"▁users":4190,"ague":4191,"▁please":4192,"▁appe":4193,"Info":4194,"CL":4195,"Sub":4196,"▁};":4197,"dir":4198,"dev":4199,"flow":4200,"adas":4201,"▁customers":4202,"▁charg":4203,"event":4204,"Ser":4205,"▁Sept":4206,"▁slow":4207,"ön":4208,"▁sense":4209,"▁(!":4210,"▁student":4211,"▁depart":4212,"xi":4213,"▁fail":4214,"▁gold":4215,"Message":4216,"▁official":4217,"table":4218,"Label":4219,"OW":4220,"▁Er":4221,"▁includes":4222,"emic":4223,"itation":4224,"▁Our":4225,"▁flex":4226,"▁solid":4227,"based":4228,"Per":4229,"▁June":4230,"▁associated":4231,"Control":4232,"▁fig":4233,"▁Dav":4234,"Click":4235,"▁town":4236,"▁distance":4237,"▁basis":4238,"▁functions":4239,"inding":4240,"MP":4241,"▁phone":4242,"▁active":4243,"oi":4244,"▁decre":4245,"band":4246,"▁Ang":4247,"▁Her":4248,"web":4249,"ography":4250,"wood":4251,"▁consum":4252,"▁vel":4253,"▁inj":4254,"▁Pat":4255,"▁digital":4256,"aches":4257,"▁Your":4258,"▁simply":4259,"Trans":4260,"▁Don":4261,"▁rat":4262,"cs":4263,"Windows":4264,"▁om":4265,"Me":4266,"▁language":4267,"▁immedi":4268,"▁computer":4269,"▁defin":4270,"thern":4271,"encies":4272,"▁transport":4273,"▁instead":4274,"iling":4275,"▁bud":4276,"▁trust":4277,"aries":4278,"▁**":4279,"▁url":4280,"then":4281,"una":4282,"ald":4283,"tn":4284,"▁defined":4285,"▁cos":4286,"▁sav":4287,"▁effective":4288,"▁late":4289,"oring":4290,"OP":4291,"▁Inst":4292,"▁Brit":4293,"▁door":4294,"▁therefore":4295,"isions":4296,"reet":4297,"}},":4298,"▁follows":4299,"Che":4300,"ota":4301,"▁NOT":4302,"export":4303,"▁IS":4304,"eler":4305,"▁collection":4306,"▁essential":4307,"▁international":4308,"▁bul":4309,"▁studies":4310,"▁political":4311,"bra":4312,"amin":4313,"akan":4314,"ran":4315,"▁March":4316,"comp":4317,"▁regul":4318,"▁leave":4319,"open":4320,"▁np":4321,"▁written":4322,"▁deep":4323,"TE":4324,"rl":4325,"▁aqu":4326,"▁enter":4327,"▁experiment":4328,"phone":4329,"jet":4330,"▁prefer":4331,"▁capital":4332,"▁component":4333,"▁direction":4334,"like":4335,"▁Ent":4336,"▁built":4337,"lib":4338,"han":4339,"isa":4340,"omen":4341,"▁War":4342,"▁drug":4343,"yles":4344,"itory":4345,"▁happy":4346,"uid":4347,"▁Inc":4348,"▁distribution":4349,"ford":4350,"▁Ber":4351,"IA":4352,"▁rot":4353,"▁mel":4354,"ami":4355,"isation":4356,"▁Ant":4357,"wer":4358,"▁ini":4359,"rought":4360,"▁summer":4361,"▁choice":4362,"▁greater":4363,"▁First":4364,"aby":4365,"holder":4366,"mber":4367,"augh":4368,"▁Fig":4369,"sin":4370,"dat":4371,"▁hair":4372,"▁std":4373,"duc":4374,"Fig":4375,"▁ensure":4376,"unic":4377,"▁mut":4378,"▁border":4379,"node":4380,"/>":4381,"urt":4382,"ds":4383,"▁aud":4384,"▁assum":4385,"umin":4386,"Build":4387,"▁instit":4388,"▁label":4389,"▁choose":4390,"▁Port":4391,"▁node":4392,"▁Def":4393,"▁histor":4394,"MS":4395,"bi":4396,"▁mode":4397,"raz":4398,"▁Off":4399,"gar":4400,"▁swe":4401,"▁ka":4402,"▁hy":4403,"▁April":4404,"etch":4405,"▁worth":4406,"▁software":4407,"▁reach":4408,"▁situation":4409,"▁pul":4410,"oman":4411,"▁Sub":4412,"▁President":4413,"ago":4414,"▁led":4415,"cia":4416,"▁va":4417,"▁cert":4418,"▁save":4419,"▁costs":4420,"▁fish":4421,"▁heat":4422,"illed":4423,"rea":4424,"ít":4425,"▁Just":4426,"▁ba":4427,"▁meeting":4428,"▁actual":4429,"','":4430,"▁demon":4431,"si":4432,"jo":4433,"▁altern":4434,"▁designed":4435,"Menu":4436,"▁symbol":4437,"▁resources":4438,"▁House":4439,"▁song":4440,"izes":4441,"spring":4442,"▁subst":4443,"▁factor":4444,"▁margin":4445,"▁materials":4446,"▁involved":4447,"▁phase":4448,"orith":4449,"▁English":4450,"▁hat":4451,"▁ur":4452,"▁bes":4453,"▁cool":4454,"▁practice":4455,"SON":4456,"▁construction":4457,"parent":4458,"▁note":4459,"▁solutions":4460,"▁rev":4461,"det":4462,"gn":4463,"▁rock":4464,"▁sea":4465,"Drawing":4466,"aled":4467,"aling":4468,"cell":4469,"irit":4470,"▁None":4471,"agen":4472,"▁became":4473,"▁mid":4474,"▁compar":4475,"last":4476,"▁statement":4477,"](":4478,"▁μ":4479,"▁throughout":4480,"▁Ke":4481,"▁kom":4482,"wide":4483,"▁sold":4484,"▁machine":4485,"Att":4486,"▁directly":4487,"flo":4488,"▁offers":4489,"Step":4490,"lig":4491,"▁mu":4492,"Acc":4493,"▁thus":4494,"izer":4495,"▁compared":4496,"▁players":4497,"▁investig":4498,"endant":4499,"pid":4500,"▁Work":4501,"SI":4502,"▁conv":4503,"Em":4504,"FF":4505,"▁liter":4506,"▁pretty":4507,"▁sample":4508,"▁population":4509,"▁brand":4510,"▁voc":4511,"but":4512,"ashing":4513,"▁July":4514,"▁opportunity":4515,"▁themselves":4516,"▁ready":4517,"▁apply":4518,"cz":4519,"▁pun":4520,"▁celebr":4521,"rad":4522,"aux":4523,"nen":4524,"▁Of":4525,"▁deliver":4526,"base":4527,"▁hit":4528,"▁medical":4529,"▁economic":4530,"▁frame":4531,"Det":4532,"och":4533,"rs":4534,"▁lic":4535,"iven":4536,"▁developed":4537,"▁charge":4538,"oma":4539,"eval":4540,"▁rele":4541,"▁selected":4542,"▁volume":4543,"lation":4544,"]{":4545,"lich":4546,"Te":4547,"rupt":4548,"mitted":4549,"([":4550,"▁stage":4551,"illa":4552,"▁Health":4553,"uth":4554,"icient":4555,"▁species":4556,"▁dou":4557,"▁scale":4558,"▁Black":4559,"▁numer":4560,"cap":4561,"Back":4562,"game":4563,"▁Austral":4564,"▁recently":4565,"▁Department":4566,"▁avoid":4567,"ji":4568,"▁suff":4569,"more":4570,"▁reference":4571,"▁Ret":4572,"▁ki":4573,"BS":4574,"▁aus":4575,"▁emer":4576,"▁easily":4577,"▁operation":4578,"client":4579,"▁Mat":4580,"▁release":4581,"▁police":4582,"▁Text":4583,"▁acqu":4584,"abled":4585,"has":4586,"▁commer":4587,"▁ability":4588,"▁morning":4589,"urance":4590,"eps":4591,"▁wonder":4592,"▁customer":4593,"▁connection":4594,"▁trou":4595,"cher":4596,"▁assess":4597,"▁progress":4598,"RI":4599,"▁driv":4600,"▁Since":4601,"erve":4602,"ses":4603,"▁names":4604,"▁expression":4605,"soft":4606,"arden":4607,"iler":4608,"aly":4609,"▁vert":4610,"▁located":4611,"ls":4612,"▁remember":4613,"▁hi":4614,"▁currently":4615,"CA":4616,"number":4617,"▁Out":4618,"▁Mus":4619,"[\\":4620,"pol":4621,"▁towards":4622,"▁safety":4623,"▁stri":4624,"arily":4625,"header":4626,"target":4627,"▁absol":4628,"▁Feb":4629,"ila":4630,"push":4631,"nu":4632,"▁Air":4633,"▁playing":4634,"▁physical":4635,"ende":4636,"▁sho":4637,"▁himself":4638,"▁leaders":4639,"▁goal":4640,"PL":4641,"/**":4642,"▁Net":4643,"▁construct":4644,"▁negative":4645,"▁Hol":4646,"▁sich":4647,"ema":4648,"iki":4649,"▁ot":4650,"▁increasing":4651,"▁attempt":4652,"▁ded":4653,"▁kit":4654,"spec":4655,"▁bag":4656,"ttp":4657,"▁weeks":4658,"▁drive":4659,"▁Sie":4660,"▁projects":4661,"▁attention":4662,"▁switch":4663,",\\":4664,"▁nucle":4665,"▁instance":4666,"▁professional":4667,"▁purpose":4668,"▁nut":4669,"ancy":4670,"▁America":4671,"▁writing":4672,"cular":4673,"▁Here":4674,"▁skin":4675,"▁bur":4676,"▁Sol":4677,"▁shot":4678,"▁accur":4679,"}.":4680,"▁ε":4681,"▁eine":4682,"▁looks":4683,"▁rights":4684,"▁fill":4685,"semb":4686,"▁August":4687,"anner":4688,"▁nicht":4689,"asons":4690,"▁files":4691,"aste":4692,"send":4693,"▁comment":4694,"▁Fe":4695,"fa":4696,"▁zero":4697,"▁lost":4698,"ruit":4699,"atively":4700,"req":4701,"uan":4702,"Activity":4703,"▁trade":4704,"▁Bro":4705,"▁fresh":4706,"▁Mich":4707,"▁nav":4708,"▁Court":4709,"▁farm":4710,"Rec":4711,"plot":4712,"eller":4713,"▁whose":4714,"▁appropri":4715,"Style":4716,"▁observed":4717,"▁Data":4718,"▁motion":4719,"▁wide":4720,"She":4721,"space":4722,"▁gar":4723,"▁maximum":4724,"▁International":4725,"▁restaur":4726,"▁ta":4727,"▁capt":4728,"AY":4729,"fit":4730,"▁electron":4731,"ogen":4732,"▁County":4733,"Inst":4734,"▁vir":4735,"▁degree":4736,"▁Test":4737,"rier":4738,"hol":4739,"ker":4740,"▁dress":4741,"▁limited":4742,"▁figure":4743,"eli":4744,"▁dur":4745,"▁China":4746,"▁demonstr":4747,"Char":4748,"roy":4749,"▁dies":4750,"Source":4751,"▁reve":4752,"▁Up":4753,"▁vac":4754,"oding":4755,"▁leading":4756,"▁CH":4757,"▁amb":4758,"▁Set":4759,"orge":4760,"▁exerc":4761,"otes":4762,"▁recommend":4763,"▁View":4764,"▁equipment":4765,"long":4766,"VID":4767,"▁ow":4768,"▁fine":4769,"▁ID":4770,"▁constit":4771,"EC":4772,"▁September":4773,"▁London":4774,"ester":4775,"▁allows":4776,"known":4777,"dy":4778,"▁cat":4779,"isi":4780,"edia":4781,"▁yourself":4782,"éd":4783,"▁tro":4784,"▁factors":4785,"▁camera":4786,"▁stra":4787,"▁gave":4788,"rew":4789,"eder":4790,"▁organiz":4791,"▁tal":4792,"▁General":4793,"▁sales":4794,"▁neigh":4795,"▁fair":4796,"▁isn":4797,"▁Direct":4798,"TER":4799,"▁prot":4800,"▁resid":4801,"aks":4802,"▁emp":4803,"▁electric":4804,"▁goes":4805,"names":4806,"BC":4807,"ously":4808,"oz":4809,"▁tool":4810,"▁primary":4811,"▁ones":4812,"▁receive":4813,"level":4814,"TS":4815,"▁See":4816,"▁Die":4817,"”,":4818,"UI":4819,"vare":4820,"▁approxim":4821,"▁challeng":4822,"anda":4823,"(-":4824,"product":4825,"▁comfort":4826,"ersion":4827,"▁disease":4828,"▁worked":4829,"iring":4830,"▁priv":4831,"format":4832,"▁server":4833,"uate":4834,"▁bottom":4835,"▁Mor":4836,"▁mother":4837,"▁Ben":4838,"Client":4839,"dim":4840,"amera":4841,"▁della":4842,"aren":4843,"▁filter":4844,"rench":4845,"▁Form":4846,"▁((":4847,"kin":4848,"▁Techn":4849,"amily":4850,"▁/*":4851,"react":4852,"▁Bank":4853,"Figure":4854,"object":4855,"▁club":4856,"ship":4857,"close":4858,"▁While":4859,"▁len":4860,"umerate":4861,"▁pow":4862,"▁decor":4863,"args":4864,"write":4865,"▁tod":4866,"Go":4867,"▁root":4868,"ians":4869,"Gener":4870,"rum":4871,"idden":4872,"▁pu":4873,"sor":4874,"first":4875,"▁Service":4876,"update":4877,"summary":4878,"▁hydro":4879,"▁reading":4880,"osis":4881,"(){":4882,"▁insp":4883,"urrent":4884,"▁Center":4885,"itect":4886,"clude":4887,"▁sel":4888,"▁January":4889,"psilon":4890,"▁middle":4891,"lam":4892,"abil":4893,"Us":4894,"▁requirements":4895,"gest":4896,"▁als":4897,"uffer":4898,"▁Il":4899,"▁sex":4900,"pace":4901,"local":4902,"▁moving":4903,"▁mole":4904,"▁func":4905,"hal":4906,"▁determine":4907,"▁applied":4908,"▁Japan":4909,"▁handle":4910,"term":4911,"▁situ":4912,"▁Dist":4913,"▁letter":4914,"▁King":4915,"ignment":4916,"▁virt":4917,"▁advant":4918,"▁upd":4919,"▁theory":4920,"▁began":4921,"Pan":4922,"struct":4923,"▁quickly":4924,"weight":4925,"▁basic":4926,"ocol":4927,"▁carry":4928,"▁central":4929,"▁picture":4930,"▁aspect":4931,"▁Di":4932,"menu":4933,"adow":4934,"▁drink":4935,"▁fight":4936,"▁produced":4937,"▁somet":4938,"▁contains":4939,"oti":4940,"▁az":4941,"▁contribut":4942,"core":4943,"las":4944,"ptions":4945,"Forms":4946,"▁PI":4947,"▁Government":4948,"▁brought":4949,"▁highly":4950,"▁matrix":4951,"▁eyes":4952,"▁TV":4953,"enge":4954,"SP":4955,"▁interesting":4956,"▁Sen":4957,"ocr":4958,"eds":4959,"haps":4960,"Response":4961,"bum":4962,"▁famil":4963,"ungen":4964,"▁skills":4965,"▁($":4966,"apping":4967,"▁wrong":4968,"▁Mal":4969,"NE":4970,"▁parameters":4971,"▁labor":4972,"etic":4973,"():":4974,"▁vict":4975,"▁internal":4976,"grad":4977,"▁although":4978,"eline":4979,"▁wa":4980,"▁join":4981,"ifest":4982,"▁Day":4983,"▁rule":4984,"std":4985,"emos":4986,"host":4987,"hest":4988,"ensions":4989,"▁py":4990,"▁Instit":4991,"sol":4992,"▁cast":4993,"▁feet":4994,"gs":4995,"iro":4996,"▁lives":4997,"▁uses":4998,"▁applications":4999,"aign":5000,"▁throw":5001,"▁determined":5002,"▁liqu":5003,"rec":5004,"Read":5005,"▁fields":5006,"ulf":5007,"▁proposed":5008,"▁collect":5009,"iber":5010,"▁October":5011,"▁Calif":5012,"efore":5013,"project":5014,"pite":5015,"▁Pal":5016,"miss":5017,"▁serious":5018,"utive":5019,"▁president":5020,"▁allowed":5021,"▁render":5022,"▁metal":5023,"▁presented":5024,"▁patient":5025,"▁kids":5026,")$,":5027,"iers":5028,"▁firm":5029,"▁presence":5030,"▁lack":5031,"……":5032,"AND":5033,"▁rates":5034,"▁Indian":5035,"inder":5036,"▁shape":5037,"enty":5038,"▁mess":5039,"▁candid":5040,"har":5041,"▁sale":5042,"▁variety":5043,"▁components":5044,"aka":5045,"otion":5046,"▁nie":5047,"rowser":5048,"▁November":5049,"anta":5050,"▁enh":5051,"▁spring":5052,"▁Det":5053,"▁books":5054,"▁starting":5055,"▁adjust":5056,"▁tor":5057,"aven":5058,"TO":5059,"After":5060,"ulated":5061,"▁organization":5062,"▁temp":5063,"amm":5064,"bin":5065,"source":5066,"▁lay":5067,"▁larger":5068,"▁completely":5069,"DB":5070,"▁nor":5071,"▁Bi":5072,"▁Associ":5073,"▁Table":5074,"response":5075,"▁tut":5076,"icas":5077,"lem":5078,"connect":5079,"▁square":5080,"▁auto":5081,"▁mys":5082,"▁Vol":5083,"▁emb":5084,"rief":5085,"▁True":5086,"nie":5087,"▁nice":5088,"ów":5089,"▁pel":5090,"▁imag":5091,"Do":5092,"▁giving":5093,"▁parents":5094,"raf":5095,"acer":5096,"▁dry":5097,"Start":5098,"▁notice":5099,"ERS":5100,"root":5101,"card":5102,"▁Group":5103,"▁roll":5104,"▁storage":5105,"▁milit":5106,"Default":5107,"acht":5108,"berg":5109,"▁tend":5110,"▁score":5111,"▁vill":5112,"▁Sal":5113,"vari":5114,"▁UK":5115,"ifying":5116,"hood":5117,"▁credit":5118,"win":5119,"CD":5120,"▁existing":5121,"▁dynam":5122,"▁strength":5123,"rive":5124,"▁career":5125,"▁cab":5126,"anto":5127,"▁safe":5128,"▁sust":5129,"▁fully":5130,"netic":5131,"▁aim":5132,"▁cart":5133,"}}$":5134,"▁felt":5135,"▁piece":5136,"ABLE":5137,"▁remove":5138,"▁achieve":5139,"▁layer":5140,"▁father":5141,"IF":5142,"▁poly":5143,"lu":5144,"CON":5145,"▁produce":5146,"▁assist":5147,"▁hous":5148,"▁ci":5149,"▁rules":5150,"house":5151,"alty":5152,"▁legal":5153,"▁seek":5154,"iciency":5155,"That":5156,"▁linear":5157,"▁touch":5158,"Location":5159,"▁daily":5160,"vention":5161,"ieved":5162,"▁stream":5163,"▁paid":5164,"▁December":5165,"▁esc":5166,"author":5167,"▁movie":5168,"gener":5169,"▁Cap":5170,"antes":5171,"▁aux":5172,"Rep":5173,"ashion":5174,"▁Main":5175,"▁cit":5176,"▁tom":5177,"ounced":5178,"▁clin":5179,"AGE":5180,"▁station":5181,"chi":5182,"▁particularly":5183,"▁floor":5184,"ael":5185,"▁benefits":5186,"▁showed":5187,"▁CON":5188,"▁saying":5189,"rio":5190,"▁yield":5191,"empl":5192,"▁cloud":5193,"▁forest":5194,"counter":5195,"rote":5196,"▁supply":5197,"****************":5198,"▁ko":5199,"▁surpr":5200,"ename":5201,"▁tools":5202,"▁·":5203,"Om":5204,"▁reduce":5205,"▁detect":5206,"idos":5207,"Now":5208,"rome":5209,"ação":5210,"process":5211,"▁kon":5212,"▁stru":5213,"ffee":5214,"________":5215,"null":5216,"▁tit":5217,"store":5218,"server":5219,"CR":5220,"under":5221,"ez":5222,"IO":5223,"▁download":5224,"▁Ma":5225,"▁prepar":5226,"▁hour":5227,"▁published":5228,"▁variable":5229,"▁bien":5230,"press":5231,"▁motor":5232,"▁Google":5233,"▁Sa":5234,"▁fat":5235,"▁session":5236,"varepsilon":5237,"▁cm":5238,"Let":5239,"android":5240,"▁auch":5241,"▁doc":5242,"▁plants":5243,"▁Sur":5244,"▁Tra":5245,"bu":5246,"▁»":5247,"▁description":5248,"van":5249,"▁sometimes":5250,"▁slight":5251,"▁ju":5252,"clusion":5253,"▁Research":5254,"outer":5255,"▁Spec":5256,"components":5257,"▁Company":5258,"▁på":5259,"▁ult":5260,"UP":5261,"▁tip":5262,"NS":5263,"▁resource":5264,"akt":5265,"▁setting":5266,"raint":5267,"frame":5268,"▁earlier":5269,"▁format":5270,"▁Develop":5271,"iner":5272,"▁latest":5273,"aba":5274,"ruary":5275,"▁prices":5276,"actory":5277,"▁fixed":5278,"▁Post":5279,"▁anyone":5280,"▁beginning":5281,"▁closed":5282,"▁fol":5283,"▁smart":5284,"Compat":5285,"▁culture":5286,"▁capacity":5287,"▁Also":5288,"▁decided":5289,"▁Math":5290,"▁Met":5291,"▁ideas":5292,"▁mobile":5293,"BA":5294,"TR":5295,"▁paint":5296,"▁steps":5297,"oom":5298,"▁dir":5299,"▁opin":5300,"▁excell":5301,"▁Super":5302,"▁Law":5303,"icos":5304,"acement":5305,"▁relev":5306,"enumerate":5307,"▁stick":5308,"dr":5309,"▁memory":5310,"try":5311,"▁wind":5312,"yr":5313,"▁apart":5314,"lik":5315,"▁formula":5316,"▁dead":5317,"▁chance":5318,"▁processes":5319,"▁rob":5320,"attr":5321,"▁eight":5322,"▁meaning":5323,"▁ww":5324,"iny":5325,"EY":5326,"▁successful":5327,"▁math":5328,"PA":5329,"olf":5330,"▁doll":5331,"ques":5332,"▁algorith":5333,"▁<=":5334,"▁norm":5335,"▁programs":5336,"▁reaction":5337,"▁jo":5338,"▁understanding":5339,"▁Mag":5340,"▁plans":5341,"lands":5342,"ál":5343,"framework":5344,"▁consult":5345,"▁respectively":5346,"▁bond":5347,"inct":5348,"▁lock":5349,"▁Dan":5350,"ornia":5351,"▁partners":5352,"anged":5353,"▁units":5354,"▁Thus":5355,"iments":5356,"▁hospital":5357,"▁commercial":5358,"ova":5359,"▁earn":5360,"▁connected":5361,"call":5362,"▁followed":5363,"▁Dem":5364,"▁Char":5365,"omas":5366,"▁science":5367,"▁flat":5368,"peed":5369,"ño":5370,"▁counter":5371,"sch":5372,"iform":5373,"Co":5374,"▁providing":5375,"▁encour":5376,"▁played":5377,"▁relative":5378,"▁amaz":5379,"▁Rem":5380,"PRO":5381,"default":5382,"▁places":5383,"▁forms":5384,"CTION":5385,"▁Serv":5386,"▁traditional":5387,"Interface":5388,"▁broad":5389,"▁operations":5390,"cles":5391,"stream":5392,"▁Class":5393,"▁birth":5394,"eting":5395,"▁useful":5396,"▁optim":5397,"ju":5398,"▁Sam":5399,"uman":5400,"▁Arm":5401,"▁changed":5402,"▁European":5403,"▁wat":5404,"▁established":5405,"inger":5406,"ugin":5407,"Am":5408,"▁resol":5409,"ctors":5410,"▁photos":5411,"abb":5412,"▁Fin":5413,"sg":5414,"fol":5415,"▁scient":5416,"▁innov":5417,"▁therm":5418,"▁nu":5419,"▁Hel":5420,"▁cru":5421,"Status":5422,"▁Street":5423,"python":5424,"Fl":5425,"Web":5426,"ying":5427,"total":5428,"nel":5429,"▁pair":5430,"▁reserv":5431,"▁www":5432,"▁growing":5433,"itar":5434,"▁protection":5435,"asa":5436,"▁Je":5437,"draw":5438,"▁strateg":5439,"URL":5440,"▁sell":5441,"enses":5442,"▁pou":5443,"▁Figure":5444,"▁dari":5445,"▁sleep":5446,"Mode":5447,"'.":5448,"▁critical":5449,"akers":5450,"ART":5451,"▁Bel":5452,"▁gets":5453,"lections":5454,"Link":5455,"▁TO":5456,"▁protein":5457,"Comm":5458,"lose":5459,"▁bey":5460,"▁Paul":5461,"Param":5462,"▁uns":5463,"▁vent":5464,"remove":5465,"email":5466,"▁becomes":5467,"Application":5468,"▁expand":5469,"▁adult":5470,"▁appropriate":5471,"▁overall":5472,"column":5473,"▁sand":5474,"CS":5475,"▁fab":5476,"▁secret":5477,"ocity":5478,"▁(\"":5479,"aten":5480,"▁wave":5481,"etime":5482,"free":5483,"▁surv":5484,"▁selection":5485,"▁carbon":5486,"reci":5487,"iance":5488,"▁float":5489,"Task":5490,"unit":5491,"▁showing":5492,"▁repe":5493,"▁Date":5494,".\\":5495,"▁released":5496,"▁turned":5497,"ipe":5498,"▁generally":5499,"▁register":5500,"▁seven":5501,"▁esta":5502,"riter":5503,"▁David":5504,"func":5505,"▁Program":5506,"▁dar":5507,"▁heard":5508,"▁investment":5509,"▁independent":5510,"ORT":5511,"▁menu":5512,"cn":5513,"▁Mart":5514,"▁mac":5515,"iden":5516,"▁ich":5517,"▁Na":5518,"▁mir":5519,"▁Therefore":5520,"▁immediately":5521,"▁extrem":5522,"Check":5523,"▁Les":5524,"mid":5525,"▁straight":5526,"▁wife":5527,"Ne":5528,"while":5529,"▁finally":5530,"osa":5531,"▁Home":5532,"EO":5533,"duction":5534,"uto":5535,"▁>=":5536,"▁behavior":5537,"▁establish":5538,"Route":5539,"▁och":5540,"▁Prof":5541,"actor":5542,"context":5543,"▁wild":5544,"▁discover":5545,"▁pp":5546,"▁Commission":5547,"▁pap":5548,"▁Board":5549,"ori":5550,"fin":5551,"varphi":5552,"▁Use":5553,"▁impl":5554,"▁leaves":5555,"imo":5556,"▁ign":5557,"▁rend":5558,"▁hear":5559,"oria":5560,"▁relig":5561,"▁£":5562,"Black":5563,"Handler":5564,"oles":5565,"fill":5566,"geq":5567,"▁eu":5568,"ville":5569,"▁passed":5570,"select":5571,"ainer":5572,"uster":5573,"▁ru":5574,"▁mix":5575,"Create":5576,"▁TH":5577,"icial":5578,"▁rain":5579,"▁mm":5580,"▁talking":5581,"▁era":5582,"▁poor":5583,"pred":5584,"▁tab":5585,"▁boy":5586,"▁restrict":5587,"▁Web":5588,"▁corpor":5589,"Vis":5590,"▁terr":5591,",'":5592,"iders":5593,"udi":5594,"▁mentioned":5595,"▁employees":5596,"▁ay":5597,"▁signal":5598,"container":5599,"▁tried":5600,"jection":5601,"ois":5602,"▁scen":5603,"▁Sec":5604,"inese":5605,"▁warm":5606,"ibly":5607,"split":5608,"Omega":5609,"ted":5610,"▁extends":5611,"undred":5612,"▁thinking":5613,"OH":5614,"Write":5615,"▁looked":5616,"================":5617,"ingu":5618,"'),":5619,"lock":5620,"ander":5621,"ban":5622,"▁performed":5623,">>":5624,"▁director":5625,"▁Mac":5626,"static":5627,"▁medic":5628,"▁planning":5629,"itz":5630,"▁beyond":5631,"aughter":5632,"▁appoint":5633,"▁France":5634,"▁balance":5635,"▁trend":5636,"▁reduced":5637,"▁placed":5638,"AV":5639,"▁marketing":5640,"▁individuals":5641,"element":5642,"join":5643,"▁bool":5644,"▁distribut":5645,"▁variables":5646,"oir":5647,"NO":5648,"▁monitor":5649,"▁sources":5650,"kg":5651,"Gamma":5652,"▁spread":5653,"Call":5654,"▁cop":5655,"Star":5656,"▁Ill":5657,"pes":5658,"gt":5659,"▁din":5660,"▁aware":5661,"▁divid":5662,"▁corresponding":5663,"pet":5664,"alled":5665,"▁holding":5666,"cin":5667,"▁pand":5668,"▁electr":5669,"onom":5670,"▁Rev":5671,"▁alone":5672,"▁Att":5673,"uted":5674,"▁Oh":5675,")+":5676,"▁Mem":5677,")]":5678,"▁Other":5679,"▁eye":5680,"urity":5681,"▁yellow":5682,"INE":5683,"▁Si":5684,"▁campaign":5685,"▁News":5686,"▁spot":5687,"igu":5688,"iente":5689,"▁Minister":5690,"▁smooth":5691,"▁minimum":5692,"otic":5693,"Open":5694,".'":5695,"▁Green":5696,"▁requires":5697,"▁sites":5698,"▁lie":5699,"txt":5700,"▁sets":5701,"▁income":5702,"▁sector":5703,"kh":5704,"▁nation":5705,"▁Cong":5706,"▁smaller":5707,"ymin":5708,"▁channel":5709,"asy":5710,"▁Del":5711,"▁creating":5712,"▁nearly":5713,"ikan":5714,"cro":5715,"▁damage":5716,"▁coordin":5717,"▁volt":5718,"initely":5719,"▁wooden":5720,"▁Face":5721,"Post":5722,"▁Nor":5723,"onic":5724,"▁exactly":5725,"▁East":5726,"▁Council":5727,"location":5728,"▁sau":5729,"private":5730,"▁Any":5731,"White":5732,"▁frequency":5733,"emp":5734,"▁Well":5735,"poses":5736,"▁sans":5737,"▁transition":5738,"▁bow":5739,"aught":5740,"rics":5741,"▁kan":5742,"▁trees":5743,"▁neut":5744,"uri":5745,"nam":5746,"▁California":5747,"▁padding":5748,"ded":5749,"▁core":5750,"ele":5751,"▁Press":5752,"▁proceed":5753,"Product":5754,"rend":5755,"▁trab":5756,"Ref":5757,"▁Book":5758,"Fe":5759,">(":5760,"front":5761,"DA":5762,"swing":5763,"▁Over":5764,"▁Check":5765,"anz":5766,"▁-->":5767,"▁diagn":5768,"▁ox":5769,"ading":5770,"▁huge":5771,"▁initi":5772,"▁schedu":5773,"▁parte":5774,"MENT":5775,"▁interview":5776,"river":5777,"▁¿":5778,"Na":5779,"▁blog":5780,"▁Es":5781,"▁tick":5782,"▁Canada":5783,"▁Loc":5784,"▁baby":5785,"▁wed":5786,"lob":5787,"▁winter":5788,"▁weak":5789,"filter":5790,"iller":5791,"▁Sund":5792,"▁§":5793,"TP":5794,"▁sky":5795,"URE":5796,"eles":5797,"rd":5798,"▁British":5799,"ffect":5800,"▁grant":5801,"Right":5802,"▁rapid":5803,"▁tid":5804,"▁thous":5805,"emb":5806,"▁ratio":5807,"ears":5808,"▁entry":5809,"ulate":5810,"▁interpre":5811,"google":5812,"parse":5813,"▁batter":5814,"---":5815,"odo":5816,"▁continued":5817,"▁anti":5818,"▁reports":5819,"▁February":5820,"▁km":5821,"INT":5822,"▁cryst":5823,"reme":5824,"orph":5825,"▁testing":5826,"▁til":5827,"ellig":5828,"▁knew":5829,"▁foreign":5830,"▁Mer":5831,"▁surround":5832,"▁drop":5833,"ULT":5834,"▁sufficient":5835,"ME":5836,"▁heavy":5837,"▁angle":5838,"▁mig":5839,"▁lov":5840,"First":5841,"▁cro":5842,"▁communication":5843,"break":5844,"▁White":5845,"▁wasn":5846,"env":5847,"▁none":5848,"▁PC":5849,"▁db":5850,"▁movement":5851,"aria":5852,"▁serve":5853,"▁society":5854,"tro":5855,"▁Product":5856,"▁spirit":5857,"▁stuff":5858,"Run":5859,"▁dut":5860,"orial":5861,"TON":5862,"▁highest":5863,"unity":5864,"▁chapter":5865,"cu":5866,"End":5867,"▁electro":5868,"▁hyp":5869,"▁plate":5870,"Br":5871,"▁caused":5872,"▁Please":5873,"Init":5874,"▁bon":5875,"OU":5876,"ech":5877,"▁Sing":5878,"ät":5879,"DF":5880,"rait":5881,"▁obvious":5882,"coming":5883,"eld":5884,"▁Power":5885,"▁\\\"":5886,"▁Mad":5887,"align":5888,"▁harm":5889,"▁Name":5890,"▁scre":5891,"bib":5892,"▁loop":5893,"▁helps":5894,"▁convert":5895,"▁exhib":5896,"urer":5897,"▁Sk":5898,"ructure":5899,"▁devices":5900,"▁Rel":5901,"party":5902,"▁street":5903,"▁samples":5904,"well":5905,"rangle":5906,"▁instr":5907,"▁Section":5908,"ailed":5909,"oder":5910,"area":5911,"▁edge":5912,"ologies":5913,"endar":5914,"normal":5915,"▁Los":5916,"▁annual":5917,"osen":5918,"izar":5919,"▁clients":5920,"▁eth":5921,"ae":5922,"▁otherwise":5923,"▁chemical":5924,"Title":5925,"▁Elect":5926,"ishing":5927,"bur":5928,"othes":5929,"raction":5930,"▁sie":5931,"entes":5932,"▁purchase":5933,"aga":5934,"▁async":5935,"▁gain":5936,"▁appears":5937,"inated":5938,"window":5939,"ulations":5940,"iat":5941,"izont":5942,"▁actions":5943,"imer":5944,"anging":5945,"▁Public":5946,"▁visual":5947,"SC":5948,"itors":5949,"▁Back":5950,"▁College":5951,"inally":5952,"aman":5953,"▁ideal":5954,"▁covered":5955,"▁attract":5956,"▁mask":5957,"▁pool":5958,"▁cold":5959,"▁govern":5960,"▁Business":5961,"estion":5962,"▁Cam":5963,"▁cin":5964,"▁sor":5965,"▁benefit":5966,"tex":5967,"ako":5968,"ressed":5969,"?\"":5970,"▁maybe":5971,"▁trial":5972,"ños":5973,"▁interested":5974,"▁magn":5975,"▁remains":5976,"▁dil":5977,".).":5978,"Fil":5979,"asta":5980,"cite":5981,"▁Id":5982,"rot":5983,"▁reasons":5984,"big":5985,"▁User":5986,"▁largest":5987,"▁named":5988,"▁incor":5989,"▁threat":5990,"▁reflect":5991,"▁thick":5992,"module":5993,"▁happen":5994,"▁vehicle":5995,"▁sequence":5996,"▁James":5997,"ono":5998,"▁carried":5999,"▁diam":6000,"▁ship":6001,"layer":6002,"illing":6003,"SH":6004,"TEXT":6005,"random":6006,"scape":6007,"▁excellent":6008,"▁tele":6009,"anya":6010,"▁exists":6011,"gin":6012,"▁roy":6013,"▁kar":6014,"▁Que":6015,"Equ":6016,"rawn":6017,"▁ses":6018,"▁equival":6019,"▁ahead":6020,"atin":6021,"▁adapt":6022,"▁Rich":6023,"allel":6024,"▁previously":6025,"▁Av":6026,"▁Rober":6027,"component":6028,"▁strategy":6029,"▁ok":6030,"▁race":6031,"▁payment":6032,"▁hundred":6033,"▁\",":6034,"▁ped":6035,"QL":6036,"olar":6037,"values":6038,"▁sed":6039,"DR":6040,"sen":6041,"▁fix":6042,"▁myself":6043,"document":6044,"hy":6045,"pop":6046,"foot":6047,"▁oder":6048,"bottom":6049,"asion":6050,"ests":6051,"isher":6052,"▁premi":6053,"rated":6054,"▁Time":6055,"▁characters":6056,"▁divers":6057,"▁Gl":6058,"angan":6059,"▁master":6060,"bf":6061,"hav":6062,"▁England":6063,"SO":6064,"▁upper":6065,"▁texture":6066,"▁hus":6067,"anges":6068,"▁joint":6069,"ALL":6070,"aturday":6071,"▁weather":6072,"▁Open":6073,"▁query":6074,"▁ring":6075,"▁fuel":6076,"▁guys":6077,"▁snow":6078,"psi":6079,"▁consequ":6080,"▁manager":6081,"temp":6082,"CP":6083,"VER":6084,"▁density":6085,"▁Science":6086,"▁analy":6087,"▁returns":6088,"you":6089,"▁animal":6090,"FT":6091,"▁abstract":6092,"▁influence":6093,"water":6094,"items":6095,"They":6096,"▁miles":6097,"boot":6098,"▁beach":6099,"▁Wed":6100,"▁healthy":6101,"▁amazing":6102,"▁principal":6103,"iser":6104,"▁cer":6105,"which":6106,"enz":6107,"meta":6108,"screen":6109,"▁Ann":6110,"▁shared":6111,"▁Most":6112,"gle":6113,"▁Ev":6114,"scale":6115,"Av":6116,"▁push":6117,"▁Friday":6118,"oche":6119,"command":6120,"▁goals":6121,"OK":6122,"▁collabor":6123,"▁Cr":6124,"▁sind":6125,"▁coffee":6126,"background":6127,"▁workers":6128,"▁Every":6129,"▁agreement":6130,"▁Div":6131,"▁parameter":6132,"▁century":6133,"IB":6134,"▁Washington":6135,"▁classes":6136,"▁hop":6137,"iced":6138,"enter":6139,"▁pages":6140,"that":6141,"▁Gold":6142,"▁Leg":6143,"▁susp":6144,"▁expert":6145,"Our":6146,"▁Even":6147,"▁tests":6148,"▁Each":6149,"▁budget":6150,"ESS":6151,"▁cookies":6152,"▁Sun":6153,"PR":6154,"address":6155,"Ass":6156,"hab":6157,"▁completed":6158,"▁proof":6159,"udo":6160,"▁vs":6161,"▁{\\":6162,"▁separate":6163,"▁Ze":6164,"▁announced":6165,"late":6166,"▁quarter":6167,"▁empty":6168,"Tool":6169,"IE":6170,"▁flu":6171,"▁AD":6172,"FL":6173,"▁objects":6174,"▁absor":6175,"▁Educ":6176,"alian":6177,"▁responsible":6178,"▁elif":6179,"▁prepared":6180,"▁opportunities":6181,"Min":6182,"▁earth":6183,"Main":6184,"▁COVID":6185,"▁Water":6186,"eme":6187,"▁univers":6188,"utt":6189,"description":6190,"exec":6191,"▁served":6192,"look":6193,"aki":6194,"Part":6195,"▁werden":6196,"▁spent":6197,"▁convers":6198,"layout":6199,"▁parties":6200,"▁AN":6201,"ische":6202,"Font":6203,"heet":6204,"▁fav":6205,"Each":6206,"del":6207,"▁chain":6208,"▁relevant":6209,"lay":6210,"▁rent":6211,"▁Jack":6212,"▁Design":6213,"▁bright":6214,"▁shop":6215,"▁thank":6216,"▁fans":6217,"▁moved":6218,"awa":6219,"▁vide":6220,"nb":6221,"▁Office":6222,"▁military":6223,"▁advantage":6224,"▁Fil":6225,"▁theme":6226,"▁anc":6227,"▁tempor":6228,"PC":6229,"▁pictures":6230,"▁French":6231,"olic":6232,"▁atm":6233,"▁generated":6234,"▁phen":6235,"obj":6236,"rations":6237,"▁hay":6238,"▁PRO":6239,"how":6240,"itness":6241,"▁fort":6242,"▁settings":6243,"PT":6244,"▁Engine":6245,"Nav":6246,"tha":6247,"▁tag":6248,"▁alle":6249,"▁Jes":6250,"▁sto":6251,"▁communic":6252,"▁gra":6253,"▁medium":6254,"dist":6255,"ischen":6256,"▁UN":6257,"aran":6258,"arc":6259,"ça":6260,"Tab":6261,"▁brain":6262,"▁ven":6263,"▁polic":6264,"▁Project":6265,"▁efforts":6266,"▁…":6267,"▁MA":6268,"▁radio":6269,"▁Good":6270,"▁billion":6271,"ioni":6272,"isk":6273,"ín":6274,"Width":6275,"iche":6276,"olo":6277,"▁Road":6278,"double":6279,"▁Fre":6280,"▁district":6281,"▁containing":6282,"▁tur":6283,"ferences":6284,"pective":6285,"▁colors":6286,"▁Note":6287,"hens":6288,"▁department":6289,"▁liquid":6290,"▁editor":6291,"▁cancer":6292,"▁driver":6293,"Answer":6294,"uv":6295,"annot":6296,"▁template":6297,"alah":6298,"▁sport":6299,"▁federal":6300,"▁insert":6301,"▁Jer":6302,"▁Hand":6303,"▁interface":6304,"▁arriv":6305,"▁River":6306,"▁Ins":6307,"ZE":6308,"▁Mo":6309,"▁trip":6310,"▁Fore":6311,"▁database":6312,"Ret":6313,"▁SE":6314,"▁kept":6315,"epsilon":6316,"▁Institute":6317,"asure":6318,"ipt":6319,"▁schools":6320,"▁Africa":6321,"Tube":6322,"▁gift":6323,"abe":6324,"▁families":6325,"▁Sil":6326,"road":6327,"alls":6328,"▁wrote":6329,"▁garden":6330,"▁teams":6331,"▁wish":6332,"▁appreci":6333,"Mr":6334,"crete":6335,"▁flowers":6336,"aset":6337,"white":6338,"Module":6339,"▁Found":6340,"Query":6341,"star":6342,"▁File":6343,"▁Windows":6344,"▁mort":6345,"Stream":6346,"▁Grand":6347,"▁ton":6348,"▁fi":6349,"▁bird":6350,"hors":6351,"acks":6352,"▁Land":6353,"▁OR":6354,"▁End":6355,"icit":6356,"▁supported":6357,"▁adding":6358,"▁circum":6359,"▁remov":6360,"▁fashion":6361,"Ut":6362,"BL":6363,"csv":6364,"▁importance":6365,"allow":6366,"▁ak":6367,"abilities":6368,"pu":6369,"▁jug":6370,"▁occup":6371,"rian":6372,"▁pra":6373,"▁Although":6374,"▁Bay":6375,"▁category":6376,"▁bil":6377,"▁Color":6378,"eno":6379,"▁über":6380,"▁resistance":6381,"iga":6382,"isms":6383,"▁sist":6384,"▁detail":6385,"▁award":6386,"care":6387,"▁fest":6388,"▁desc":6389,"Down":6390,"▁Arch":6391,"▁Sum":6392,"▁rom":6393,"uns":6394,"task":6395,"-(":6396,"▁measures":6397,"inate":6398,"▁animals":6399,"rees":6400,"pected":6401,"▁CD":6402,"▁god":6403,"▁explain":6404,"▁Equ":6405,"▁Phil":6406,"▁Franc":6407,"▁bath":6408,"anned":6409,"▁pull":6410,"oul":6411,"▁san":6412,"▁Association":6413,"fs":6414,"▁Great":6415,"▁Long":6416,"▁standing":6417,"▁Chem":6418,"▁steel":6419,"▁protected":6420,"▁competition":6421,"▁alleg":6422,"sey":6423,"▁increases":6424,"aron":6425,"ifications":6426,"▁pros":6427,"service":6428,"▁opening":6429,"▁sitting":6430,"antic":6431,"▁peace":6432,"gment":6433,"TA":6434,"▁economy":6435,"▁owner":6436,"▁veget":6437,"▁favorite":6438,"▁advert":6439,"%;":6440,"▁Bas":6441,"▁born":6442,"▁flag":6443,"lies":6444,"▁Secret":6445,"▁Church":6446,"AME":6447,"oted":6448,"▁burn":6449,"▁Rob":6450,"▁efficient":6451,"cup":6452,"bel":6453,"ancing":6454,"home":6455,"ervation":6456,"▁wants":6457,"▁AM":6458,"▁architect":6459,"▁manner":6460,"▁furn":6461,"cean":6462,"▁finding":6463,"▁vit":6464,"cr":6465,"othing":6466,"atically":6467,"▁owners":6468,"▁Committee":6469,"▁operating":6470,"gal":6471,"▁Sunday":6472,"▁raise":6473,"▁pure":6474,"ROM":6475,"▁feeling":6476,"▁ont":6477,"▁plane":6478,"orrow":6479,"mem":6480,"radi":6481,"HTML":6482,"▁Australia":6483,"▁synt":6484,"aire":6485,"▁buff":6486,"▁ze":6487,"▁Tex":6488,"options":6489,"▁pero":6490,"▁Object":6491,"▁stars":6492,"▁Array":6493,"▁deli":6494,"▁^":6495,"▁civil":6496,"▁ON":6497,"▁ice":6498,"▁clearly":6499,"▁views":6500,"SD":6501,"sect":6502,"amil":6503,"................":6504,"▁elim":6505,"▁guide":6506,"▁cash":6507,"▁hotel":6508,"bert":6509,"▁defendant":6510,"▁Facebook":6511,"ulo":6512,"ipping":6513,"▁Saturday":6514,"arian":6515,"▁Christmas":6516,"▁Miss":6517,"rey":6518,"▁perhaps":6519,"▁Information":6520,"▁Top":6521,"aus":6522,"Net":6523,"ypes":6524,"▁Development":6525,"apat":6526,"▁gel":6527,"ensor":6528,"izontal":6529,"GB":6530,"oli":6531,"bet":6532,"alar":6533,"xe":6534,"▁stated":6535,"▁CA":6536,"▁formed":6537,"▁prin":6538,"▁female":6539,"▁Anal":6540,"▁psych":6541,"▁disp":6542,"▁depos":6543,"▁epis":6544,"▁esp":6545,"isl":6546,"SA":6547,"▁bei":6548,"▁church":6549,"person":6550,"Property":6551,"figure":6552,"▁commit":6553,"▁guid":6554,"▁perm":6555,"estic":6556,"enda":6557,"war":6558,"▁Uh":6559,"▁info":6560,"izz":6561,"▁USA":6562,"▁package":6563,"▁forces":6564,"Here":6565,"igo":6566,"▁bott":6567,"▁approximately":6568,"▁Hot":6569,"▁generation":6570,"▁voice":6571,"clusive":6572,"aires":6573,"▁formation":6574,"tenance":6575,"Ext":6576,"▁Po":6577,"▁profession":6578,"▁panel":6579,"door":6580,"xml":6581,"undo":6582,"▁Kh":6583,"▁introduced":6584,"▁xml":6585,"▁scene":6586,"score":6587,"▁challenge":6588,"Panel":6589,"▁waste":6590,"vector":6591,"▁returned":6592,"▁partner":6593,"▁artist":6594,"▁rich":6595,"▁relation":6596,"ipped":6597,"▁technical":6598,"bind":6599,"▁shirt":6600,"delete":6601,"▁tent":6602,"▁gro":6603,"▁north":6604,"▁fan":6605,"▁delivery":6606,"▁conven":6607,"float":6608,"▁rank":6609,"`,":6610,"▁gal":6611,"▁welcome":6612,"▁kitchen":6613,"▁relax":6614,"iano":6615,"▁prime":6616,"aming":6617,"▁highlight":6618,"example":6619,"▁Cle":6620,"▁shoot":6621,"asket":6622,"▁token":6623,"uda":6624,"▁Lo":6625,"▁json":6626,"▁offered":6627,"▁combination":6628,"aha":6629,"▁stret":6630,"▁internet":6631,"rar":6632,"▁Services":6633,"▁Under":6634,"▁Stand":6635,"organ":6636,"▁identified":6637,"▁belong":6638,"▁prem":6639,"standing":6640,"▁died":6641,"▁pad":6642,"lee":6643,"VS":6644,"MM":6645,"Window":6646,"▁discussed":6647,"▁external":6648,"▁rare":6649,"▁techniques":6650,"aro":6651,"▁conver":6652,"RL":6653,"aca":6654,"While":6655,"Project":6656,"▁grid":6657,"▁album":6658,"▁algorithm":6659,"▁ban":6660,"▁FOR":6661,"▁till":6662,"▁dass":6663,"▁unless":6664,"cut":6665,"▁Tur":6666,"▁definitely":6667,"▁slightly":6668,"▁failed":6669,"arks":6670,"▁extract":6671,"▁happened":6672,"Output":6673,"▁measured":6674,"np":6675,"Header":6676,"▁Yes":6677,"▁propos":6678,"▁mist":6679,"▁standards":6680,"Bo":6681,"▁trav":6682,"▁Stat":6683,"▁interval":6684,"▁sustain":6685,"▁False":6686,"▁Alex":6687,"▁reached":6688,"▁certainly":6689,"▁industrial":6690,"▁Tom":6691,"uis":6692,"BU":6693,"imb":6694,"dot":6695,"▁Because":6696,"▁expos":6697,"▁Gen":6698,"here":6699,"admin":6700,"▁Ba":6701,"▁removed":6702,"sign":6703,"▁debt":6704,"ITY":6705,"entry":6706,"▁Li":6707,"▁argument":6708,"▁processing":6709,"▁III":6710,"▁Bre":6711,"▁Monday":6712,"Builder":6713,"session":6714,"▁EX":6715,"odies":6716,"▁concentration":6717,"ansion":6718,"\"></":6719,"né":6720,"▁coach":6721,"Mat":6722,"osh":6723,"▁somew":6724,"▁stories":6725,"▁Two":6726,"idas":6727,"▁definition":6728,"Player":6729,"END":6730,"▁bra":6731,"▁nach":6732,"▁equations":6733,"▁magnetic":6734,"icks":6735,"lets":6736,"orter":6737,"ECT":6738,"Top":6739,"▁operator":6740,"FI":6741,"▁boolean":6742,"equation":6743,"▁define":6744,"▁plot":6745,"itud":6746,"arant":6747,"xture":6748,"grid":6749,"ishes":6750,"icated":6751,"ws":6752,"Phi":6753,"Ge":6754,"sche":6755,"Max":6756,"▁Chinese":6757,"second":6758,"SER":6759,"lan":6760,"▁spend":6761,"CRE":6762,"lab":6763,"zed":6764,"isse":6765,"▁pag":6766,"Off":6767,"▁δ":6768,"▁>>":6769,"▁sports":6770,"Pol":6771,"▁rise":6772,"Cal":6773,"range":6774,"▁extremely":6775,"Can":6776,"▁leader":6777,"▁Lou":6778,"▁nas":6779,"▁cup":6780,"Num":6781,"▁YouTube":6782,"▁thread":6783,"ensional":6784,"▁finished":6785,"▁Life":6786,"iliar":6787,"▁purs":6788,"ungs":6789,"atan":6790,"irmed":6791,"acket":6792,"▁prove":6793,"Row":6794,"arp":6795,"▁Bill":6796,"▁Create":6797,"▁noted":6798,"▁iron":6799,"elles":6800,"mult":6801,"control":6802,"ilib":6803,"▁disapp":6804,"▁domain":6805,"\"\"":6806,"▁danger":6807,"▁tan":6808,"Length":6809,"▁purposes":6810,"▁deriv":6811,"▁Lord":6812,"orig":6813,"apa":6814,"▁Okay":6815,"▁Mont":6816,"▁mol":6817,"gent":6818,"Container":6819,"dep":6820,"▁Roy":6821,"▁powerful":6822,"▁shift":6823,"▁businesses":6824,"styles":6825,"▁{}":6826,"bour":6827,"login":6828,"HER":6829,"▁TR":6830,"▁ment":6831,"▁Max":6832,"▁environmental":6833,"ijn":6834,"▁cards":6835,"▁brief":6836,"Pass":6837,"▁insurance":6838,"drop":6839,"▁circuit":6840,"▁tiss":6841,"▁tum":6842,"▁tub":6843,"▁chi":6844,"▁categ":6845,"▁bis":6846,"yan":6847,"oration":6848,"▁college":6849,"abet":6850,"▁raised":6851,"▁opened":6852,"▁Tem":6853,"rency":6854,"▁learned":6855,"appy":6856,"AA":6857,"▁notes":6858,"▁implementation":6859,"▁Build":6860,"▁hai":6861,"Ke":6862,"subset":6863,"▁examples":6864,"▁discussion":6865,"▁cha":6866,"▁identify":6867,"ometric":6868,"▁Den":6869,"▁husband":6870,"▁rub":6871,"password":6872,"▁Report":6873,"▁daughter":6874,"▁south":6875,"▁PM":6876,"▁Mary":6877,"▁strugg":6878,"oco":6879,"▁Spring":6880,"console":6881,"▁(\\":6882,"▁Vector":6883,"Ver":6884,"lines":6885,"▁easier":6886,"Dec":6887,"angular":6888,"▁agent":6889,"▁egg":6890,"Base":6891,"▁generate":6892,"▁gone":6893,"▁Many":6894,"▁wire":6895,"osite":6896,"▁records":6897,"▁Vir":6898,"▁opinion":6899,"▁lang":6900,"▁Code":6901,"Column":6902,"▁depth":6903,"▁proport":6904,"▁agree":6905,"▁tun":6906,"▁ao":6907,"▁Show":6908,"Options":6909,"▁Bet":6910,"▁spin":6911,"icity":6912,"ston":6913,"▁whom":6914,"Rem":6915,"iture":6916,"poss":6917,"ango":6918,"▁dram":6919,"enta":6920,"▁exchange":6921,"▁vacc":6922,"▁Bu":6923,"▁exercise":6924,"▁funds":6925,"pie":6926,"site":6927,"▁Social":6928,"inde":6929,"▁profile":6930,"Current":6931,"▁runs":6932,"▁wear":6933,".:":6934,"▁claims":6935,"Frame":6936,"▁Pan":6937,"BO":6938,"▁significantly":6939,"osing":6940,"icious":6941,"▁toward":6942,"▁differences":6943,"▁Year":6944,"▁failure":6945,"omic":6946,"Game":6947,"▁Pet":6948,"▁sac":6949,"▁::":6950,"▁fer":6951,"GE":6952,"▁Bur":6953,"▁developing":6954,"▁Management":6955,"▁suit":6956,"▁Society":6957,"graph":6958,"urban":6959,"▁prev":6960,"tml":6961,"_\\":6962,"Sw":6963,"▁nuclear":6964,"################":6965,"▁traffic":6966,"reek":6967,"igger":6968,"▁conflic":6969,"▁Gal":6970,"▁attend":6971,"hetic":6972,"Script":6973,"▁logo":6974,"Height":6975,"▁guess":6976,"▁adopt":6977,"▁Read":6978,"▁facilities":6979,"cht":6980,"scrib":6981,"▁Director":6982,"pir":6983,"isis":6984,"▁river":6985,"▁regarding":6986,"▁Mass":6987,"▁majority":6988,"▁thanks":6989,"▁brown":6990,"langle":6991,"rypt":6992,"▁Central":6993,"plete":6994,"resents":6995,"▁NE":6996,"ius":6997,"ometry":6998,"▁wid":6999,"▁wie":7000,"▁cycle":7001,"esso":7002,"▁plaintiff":7003,"▁journal":7004,"▁AR":7005,"method":7006,"▁Best":7007,"Comp":7008,"▁fundament":7009,"inet":7010,"ums":7011,"▁procedure":7012,"▁Pub":7013,"▁plastic":7014,"cons":7015,"▁communities":7016,"Server":7017,"▁continuous":7018,"▁helped":7019,"▁gru":7020,"hemat":7021,"▁regist":7022,"▁launch":7023,"▁align":7024,")),":7025,"black":7026,"▁password":7027,"ativ":7028,"▁Mil":7029,"▁Why":7030,"mos":7031,"▁atmosph":7032,"DS":7033,"ifer":7034,"▁Union":7035,"inu":7036,"doc":7037,"▁reli":7038,"uma":7039,"▁respond":7040,"▁Nov":7041,"▁solo":7042,"▁male":7043,"lat":7044,"▁sympt":7045,"=\"/":7046,"▁Smith":7047,"▁According":7048,"going":7049,"▁script":7050,"▁han":7051,"icip":7052,"hm":7053,"ACK":7054,"Enter":7055,"ifically":7056,"vet":7057,"only":7058,"▁Wil":7059,"▁mur":7060,"▁Flor":7061,"tegr":7062,"▁William":7063,"faces":7064,"▁comments":7065,"fast":7066,"king":7067,"▁Michael":7068,"▁solve":7069,"▁resist":7070,"▁expressed":7071,"inen":7072,"Search":7073,"eres":7074,"edit":7075,"zie":7076,"Update":7077,"▁speak":7078,"▁onto":7079,"▁challenges":7080,"words":7081,"Don":7082,"Port":7083,"edy":7084,"ributes":7085,"▁whatever":7086,"edge":7087,"Work":7088,"▁printf":7089,"otype":7090,"Last":7091,"▁finish":7092,"istan":7093,"▁correl":7094,"Method":7095,"▁latter":7096,"eto":7097,"icture":7098,"▁mission":7099,"▁ren":7100,"Book":7101,"▁administr":7102,"inh":7103,"▁curve":7104,"▁leads":7105,"▁assume":7106,"Sim":7107,"▁Nat":7108,"umi":7109,"▁obj":7110,"▁syn":7111,"▁affected":7112,"▁wir":7113,"=(":7114,"save":7115,"Version":7116,"▁eat":7117,"isch":7118,"▁rac":7119,"phas":7120,"▁truth":7121,"▁ul":7122,"iten":7123,".</":7124,"▁chair":7125,"▁Tor":7126,"▁treated":7127,"▁lif":7128,"▁IT":7129,"plt":7130,"▁Club":7131,"omin":7132,"Left":7133,"▁origin":7134,"▁goods":7135,"▁Game":7136,"▁Organ":7137,"Order":7138,"▁mental":7139,"riz":7140,"ANT":7141,"mode":7142,"▁indu":7143,"▁fant":7144,"▁Further":7145,"▁Lic":7146,"▁Paris":7147,"▁ec":7148,"▁catal":7149,"abs":7150,"Cell":7151,"▁gran":7152,"gency":7153,"tag":7154,"▁Camp":7155,"▁habit":7156,"▁doctor":7157,"▁seconds":7158,"▁reduction":7159,"oga":7160,"▁pieces":7161,"ahr":7162,"▁Find":7163,"▁df":7164,"▁inputs":7165,"▁simpl":7166,"▁forma":7167,"▁advice":7168,"pert":7169,"▁structures":7170,"ursday":7171,"pling":7172,"▁resulting":7173,"ún":7174,"▁German":7175,"▁route":7176,"ogram":7177,"▁mai":7178,"▁PL":7179,"alo":7180,"ocks":7181,"▁confirm":7182,"uesday":7183,"▁fabric":7184,"ructions":7185,"ictionary":7186,"UD":7187,"▁Ext":7188,"▁evening":7189,"▁calls":7190,"▁spl":7191,"▁George":7192,"iri":7193,"▁virtual":7194,"▁Republic":7195,"Command":7196,"▁wedding":7197,"▁relatively":7198,"icio":7199,"esch":7200,"▁specified":7201,"▁dream":7202,"▁Et":7203,"▁Vis":7204,"▁throws":7205,"ogy":7206,"▁Oper":7207,"▁EN":7208,"nce":7209,"▁noise":7210,"▁orient":7211,"▁neighbor":7212,"▁cout":7213,"▁module":7214,"▁sides":7215,"Art":7216,"▁attribute":7217,"▁appeared":7218,"Child":7219,"GL":7220,"▁restaurant":7221,"non":7222,"uni":7223,"▁Prov":7224,"POST":7225,"▁Journal":7226,"▁Start":7227,"subsection":7228,"▁---":7229,"▁Supp":7230,"rence":7231,"▁excess":7232,"amer":7233,"▁changing":7234,"▁guard":7235,"▁Russian":7236,"▁driving":7237,"▁persons":7238,"▁PR":7239,"files":7240,"These":7241,"▁jump":7242,"mal":7243,"utter":7244,".$":7245,"Position":7246,"▁stim":7247,"▁couldn":7248,"▁cultural":7249,"▁interior":7250,"Dr":7251,"▁conference":7252,"Change":7253,"aa":7254,"real":7255,"▁extended":7256,"owa":7257,"kar":7258,"▁Acad":7259,"▁Hen":7260,"nament":7261,"▁distinct":7262,"▁emot":7263,"▁delay":7264,"▁Type":7265,"▁District":7266,"▁ej":7267,"▁velocity":7268,"▁calculated":7269,"Body":7270,"eni":7271,"▁holds":7272,"Hello":7273,"fection":7274,"▁strain":7275,"▁echo":7276,"Red":7277,"▁Microsoft":7278,"▁Ir":7279,"▁motiv":7280,"Next":7281,"▁suitable":7282,"▁Play":7283,"sql":7284,"False":7285,"▁calculate":7286,"▁substit":7287,"▁represents":7288,"▁elev":7289,"▁efficiency":7290,"▁Star":7291,"▁combined":7292,"▁Sy":7293,"▁soil":7294,"▁\"-":7295,"▁comme":7296,"▁API":7297,"assets":7298,"▁alternative":7299,"▁faith":7300,"anes":7301,"▁therap":7302,"cat":7303,"▁perman":7304,"▁req":7305,"▁delete":7306,"▁loved":7307,"Reference":7308,"▁resolution":7309,"▁vor":7310,"oral":7311,"▁centre":7312,"▁rect":7313,"Hz":7314,"Gr":7315,"▁wird":7316,"▁mand":7317,"bag":7318,"▁Frank":7319,"indi":7320,"▁chief":7321,"▁gene":7322,"!\"":7323,"▁seeing":7324,"unately":7325,"None":7326,"▁diet":7327,"▁journey":7328,"burg":7329,"step":7330,"hot":7331,"eless":7332,"auth":7333,"pay":7334,"clear":7335,"▁Mount":7336,"antics":7337,"▁estate":7338,"▁vertical":7339,"▁Review":7340,"CN":7341,"▁Are":7342,"▁circumst":7343,"▁Der":7344,"▁inde":7345,"▁acad":7346,"hu":7347,"▁Indust":7348,"▁equivalent":7349,"Entity":7350,"Please":7351,"▁enable":7352,"▁doubt":7353,"▁cars":7354,"bro":7355,"LECT":7356,"▁survey":7357,"?”":7358,"▁walking":7359,"▁sweet":7360,"▁portion":7361,"▁coast":7362,"▁Mel":7363,"▁gather":7364,"nesday":7365,"Const":7366,"roph":7367,"Attribute":7368,"▁tasks":7369,"insert":7370,"Some":7371,"PH":7372,"annels":7373,"▁Germany":7374,"▁uniform":7375,"▁liv":7376,"▁fif":7377,"render":7378,"imm":7379,"▁documents":7380,"]:":7381,"Eng":7382,"~\\":7383,"▁NO":7384,"▁Education":7385,"▁library":7386,"▁entr":7387,"▁Dig":7388,"pub":7389,"▁People":7390,"▁react":7391,"Home":7392,"wan":7393,"dt":7394,"▁happens":7395,"▁agricult":7396,"support":7397,"icing":7398,"▁AS":7399,"▁''":7400,"aan":7401,"▁causes":7402,"icago":7403,"▁listed":7404,"application":7405,"▁rail":7406,"▁estimated":7407,"=>":7408,"fix":7409,"▁Control":7410,"iana":7411,"▁subsequ":7412,"▁Image":7413,"night":7414,"▁compr":7415,"▁employee":7416,"icken":7417,"ORE":7418,"Details":7419,"More":7420,"ís":7421,"arse":7422,"▁fruit":7423,"utely":7424,"▁Model":7425,"aken":7426,"▁axis":7427,"oni":7428,"▁Person":7429,"▁extent":7430,"cipl":7431,"este":7432,"▁waiting":7433,"▁reality":7434,"▁Island":7435,"Level":7436,"riage":7437,"blue":7438,"▁Rad":7439,"▁sab":7440,"frast":7441,"▁characteristics":7442,"icol":7443,"▁Thomas":7444,"ede":7445,"MR":7446,"▁Internet":7447,"▁pink":7448,"▁Big":7449,"▁tel":7450,"▁Hall":7451,"Lo":7452,"Cor":7453,"life":7454,"%.":7455,"▁Twitter":7456,"▁incorpor":7457,"▁During":7458,"▁contrast":7459,"▁Christian":7460,"▁Key":7461,"iation":7462,"▁chart":7463,"ovie":7464,"▁bat":7465,"▁lu":7466,"▁Texas":7467,"Preview":7468,"▁leaving":7469,"erd":7470,"EST":7471,"▁afford":7472,"Dir":7473,"uli":7474,"▁senior":7475,"▁salt":7476,"▁interaction":7477,"▁milk":7478,"▁citiz":7479,"▁dei":7480,"liche":7481,"▁flower":7482,"Close":7483,"▁girls":7484,"acle":7485,"▁Its":7486,"▁jobs":7487,"▁Android":7488,"CI":7489,"▁regions":7490,"▁tou":7491,"▁creative":7492,"bb":7493,"irection":7494,"▁dit":7495,"adr":7496,"▁secure":7497,"Mar":7498,"▁SH":7499,"inar":7500,"equals":7501,"▁Amazon":7502,"▁Blue":7503,"argo":7504,"jar":7505,"agg":7506,"rium":7507,"MOD":7508,".*":7509,"Address":7510,"stack":7511,"Load":7512,"bot":7513,"▁Fire":7514,"▁apparent":7515,"▁king":7516,"▁ion":7517,"▁Free":7518,"bug":7519,"grade":7520,"▁Plan":7521,"ahan":7522,"▁Box":7523,"▁football":7524,"▁maintenance":7525,"▁inner":7526,"Provider":7527,"▁Lake":7528,"certain":7529,"elcome":7530,"▁AL":7531,"▁administration":7532,"make":7533,"▁composition":7534,"ims":7535,"▁famous":7536,"Total":7537,"▁minute":7538,"▁Fund":7539,"ski":7540,"▁exceed":7541,"udd":7542,"Null":7543,"vez":7544,"▁comfortable":7545,"▁League":7546,"▁meant":7547,"▁dispos":7548,"▁Return":7549,"IGHT":7550,"igan":7551,"▁Number":7552,"▁Author":7553,"▁shap":7554,"▁nit":7555,"▁fo":7556,"▁properly":7557,"blem":7558,")))":7559,"yo":7560,"▁Ha":7561,"▁Second":7562,"However":7563,"▁Mot":7564,"oda":7565,"▁pil":7566,"▁Lin":7567,"▁truck":7568,"▁Congress":7569,"▁manage":7570,"▁Mex":7571,"▁alert":7572,"▁advanced":7573,"article":7574,"▁LIST":7575,"▁intellig":7576,"eria":7577,"▁explained":7578,"▁feedback":7579,"terior":7580,"▁Jesus":7581,"oxy":7582,"▁alter":7583,"▁intent":7584,"Phone":7585,"rich":7586,"▁Console":7587,"price":7588,"SIZE":7589,"▁drawn":7590,"▁UI":7591,"▁nur":7592,"▁container":7593,"tx":7594,"▁dent":7595,"osc":7596,"▁offering":7597,"Oper":7598,"▁missing":7599,"▁Vi":7600,"▁mixed":7601,"▁kil":7602,"▁cream":7603,"▁vary":7604,"▁pump":7605,"system":7606,"▁figures":7607,"▁laws":7608,"▁weekend":7609,"▁pes":7610,"▁clinical":7611,"define":7612,"▁tail":7613,"▁village":7614,"none":7615,"▁dia":7616,"▁authority":7617,"Sl":7618,"▁Sign":7619,"▁biggest":7620,"ongo":7621,"alla":7622,"▁Dev":7623,"▁fue":7624,"▁classic":7625,"▁Pay":7626,"▁experienced":7627,"▁acceler":7628,"▁markets":7629,"Car":7630,"icians":7631,"▁committee":7632,"Description":7633,"zym":7634,"▁filled":7635,"▁excited":7636,"TAG":7637,"▁describe":7638,"▁organizations":7639,"imation":7640,"best":7641,"uls":7642,"▁despite":7643,"▁Mach":7644,"Card":7645,"▁Yeah":7646,"▁sugar":7647,"▁Run":7648,"▁HT":7649,"▁helping":7650,"▁depends":7651,"Spec":7652,"▁teacher":7653,"eros":7654,")/":7655,"▁improved":7656,"▁evalu":7657,"ème":7658,"▁detailed":7659,"ographic":7660,"▁offset":7661,"kom":7662,"Case":7663,"rog":7664,"Hel":7665,"uta":7666,"▁Ro":7667,"▁errors":7668,"aine":7669,"▁poster":7670,"▁configuration":7671,"▁voltage":7672,"▁Brown":7673,"▁identity":7674,"▁pip":7675,"inations":7676,"▁CL":7677,"Buffer":7678,"eras":7679,"▁permit":7680,"Configuration":7681,"ismo":7682,"▁arrest":7683,"types":7684,"▁É":7685,"was":7686,"GET":7687,"▁links":7688,"▁Federal":7689,"▁Thursday":7690,"▁$(\\":7691,"▁audio":7692,"blic":7693,"▁starts":7694,"Cho":7695,"▁Econom":7696,"apse":7697,"▁Call":7698,"▁older":7699,"▁Tuesday":7700,"ection":7701,"▁guy":7702,"▁remaining":7703,"▁destroy":7704,"about":7705,"unte":7706,"▁experiences":7707,"irus":7708,"$$":7709,"▁minor":7710,"▁profit":7711,"▁Robert":7712,"Flo":7713,"▁Profess":7714,"▁replace":7715,"▁island":7716,"▁continues":7717,"▁decisions":7718,"awn":7719,"iar":7720,"▁fear":7721,"inline":7722,"▁bot":7723,"▁corner":7724,"shape":7725,"▁ans":7726,"▁beauty":7727,"after":7728,"▁complic":7729,"▁Tim":7730,"▁hearing":7731,"▁Energy":7732,"▁substant":7733,"encing":7734,"▁boat":7735,"eur":7736,"▁branch":7737,"▁election":7738,"auto":7739,"}^":7740,"▁grass":7741,"▁split":7742,"▁mere":7743,"▁Once":7744,"▁wearing":7745,"cou":7746,"iste":7747,"cas":7748,"▁AT":7749,"▁Like":7750,"friend":7751,"▁patterns":7752,"phen":7753,"▁revealed":7754,"▁injury":7755,"▁technique":7756,"▁Cook":7757,"▁recorded":7758,"fire":7759,"▁AP":7760,"template":7761,"▁React":7762,"▁Apple":7763,"▁probability":7764,"▁chosen":7765,"▁segment":7766,"▁spaces":7767,"▁Kar":7768,"▁Str":7769,"▁Sche":7770,"depend":7771,"▁consistent":7772,"▁comparison":7773,"zz":7774,"▁jur":7775,"▁Their":7776,"gers":7777,"▁tout":7778,"sten":7779,"▁studied":7780,"ograf":7781,"weet":7782,"▁Fort":7783,"AK":7784,"▁cities":7785,"▁extension":7786,"▁Card":7787,"DI":7788,"assign":7789,"iem":7790,"ARY":7791,"▁pin":7792,"▁pert":7793,"▁kid":7794,"▁African":7795,"▁relationships":7796,"▁truly":7797,"▁Make":7798,"▁audience":7799,"▁surg":7800,"▁Ho":7801,"▁retail":7802,"kit":7803,"Sm":7804,"▁Comput":7805,"▁soc":7806,"DO":7807,"Unit":7808,"▁seemed":7809,"▁Wood":7810,"%,":7811,"▁instrument":7812,"▁Ter":7813,"ifts":7814,"▁witness":7815,"▁climate":7816,"nic":7817,"▁county":7818,"▁incl":7819,"GA":7820,"ahi":7821,"▁policies":7822,"▁lit":7823,"ifi":7824,"▁experimental":7825,"▁dell":7826,"▁vision":7827,"▁battle":7828,"empor":7829,"▁commission":7830,"▁recover":7831,"▁aren":7832,"rior":7833,"▁ces":7834,"▁accident":7835,"▁battery":7836,"▁facility":7837,"▁conducted":7838,"gun":7839,"▁circle":7840,"▁diagram":7841,"▁Western":7842,"oret":7843,"▁representation":7844,"▁Wal":7845,"ICE":7846,"jor":7847,"ORD":7848,"▁brother":7849,"▁cada":7850,"▁algebra":7851,"▁pred":7852,"▁knows":7853,"▁uno":7854,"▁fourth":7855,"Since":7856,"possible":7857,"▁experiments":7858,"▁inn":7859,"Cons":7860,"▁appearance":7861,"CM":7862,"Sche":7863,"▁Pass":7864,"▁fu":7865,"▁assets":7866,"▁landscape":7867,"xc":7868,"▁officer":7869,"ania":7870,"▁Mas":7871,"matrix":7872,"▁concerned":7873,"strap":7874,"▁crow":7875,"▁videos":7876,"▁Uk":7877,"SET":7878,"▁Mult":7879,"lie":7880,"roud":7881,"▁ku":7882,"▁Base":7883,"▁indicated":7884,"▁Wednesday":7885,"▁einer":7886,"III":7887,"WS":7888,"▁crim":7889,"▁indicate":7890,"eh":7891,"▁novel":7892,"▁boundary":7893,"▁wine":7894,"▁displ":7895,"▁cv":7896,"cluded":7897,"▁DNA":7898,"shop":7899,"fall":7900,"▁installed":7901,"replace":7902,"▁favour":7903,"ugh":7904,"oster":7905,"▁invent":7906,"Sign":7907,"▁interpret":7908,"▁Enter":7909,"▁plas":7910,"▁practices":7911,"▁nine":7912,"▁Russia":7913,"eti":7914,"uke":7915,"▁capac":7916,"▁stretch":7917,"bas":7918,"▁lots":7919,"▁scheme":7920,"▁stack":7921,"▁depending":7922,"▁iter":7923,"▁Prote":7924,"▁Real":7925,"atar":7926,"▁Isra":7927,"▁silver":7928,"Exp":7929,"▁einen":7930,"Direct":7931,"quer":7932,"mut":7933,"▁Cards":7934,"▁Cast":7935,"See":7936,"▁Men":7937,"▁incred":7938,"aja":7939,"atu":7940,"PM":7941,"▁rout":7942,"▁officers":7943,"prise":7944,"▁diss":7945,"onal":7946,"▁conj":7947,"▁royalty":7948,"▁Lab":7949,"▁zone":7950,"▁inhib":7951,"gb":7952,"mic":7953,"Target":7954,"FIG":7955,"▁Const":7956,"OB":7957,"__(":7958,"▁hier":7959,"device":7960,"bles":7961,"▁ble":7962,"▁aspects":7963,"final":7964,"▁Bal":7965,"▁Kore":7966,"▁officials":7967,"▁ear":7968,"azine":7969,"▁flight":7970,"▁neck":7971,"▁vess":7972,"▁signed":7973,"iveness":7974,"▁Peter":7975,"▁practical":7976,"material":7977,"▁Down":7978,"kins":7979,"▁fly":7980,"▁mechanism":7981,"paper":7982,"oded":7983,"▁mob":7984,"erman":7985,"▁pandemic":7986,"inition":7987,"ego":7988,"API":7989,":\"":7990,"transform":7991,"anie":7992,"▁percentage":7993,"▁ingred":7994,"dem":7995,"▁exit":7996,"▁occurs":7997,"▁keeping":7998,"force":7999,"Ac":8000,"okes":8001,"Pos":8002,"▁sudd":8003,"▁adj":8004,"▁Francis":8005,"inf":8006,"Note":8007,"ronic":8008,"NC":8009,"annotation":8010,"▁Secretary":8011,"ucky":8012,"omy":8013,"▁organic":8014,"▁shopping":8015,"Filter":8016,"▁Link":8017,"▁absolute":8018,"▁teaching":8019,"ourse":8020,"▁Carol":8021,"nab":8022,"▁articles":8023,")[":8024,"power":8025,"▁drawing":8026,"▁Jo":8027,"oting":8028,"▁focused":8029,"▁framework":8030,"▁leadership":8031,"▁solar":8032,"▁Cas":8033,"▁recommended":8034,"aptop":8035,"▁bacter":8036,"ads":8037,"conf":8038,"icons":8039,"▁Son":8040,"▁familiar":8041,"▁Du":8042,"▁Trump":8043,"▁seed":8044,"Supp":8045,"▁suggested":8046,"Print":8047,"▁agreed":8048,"▁agency":8049,"▁strict":8050,"▁emphas":8051,"▁colour":8052,"▁sig":8053,"▁Using":8054,"▁Food":8055,"###":8056,"inity":8057,"Entry":8058,"ycl":8059,"▁History":8060,"▁Exper":8061,"▁entertain":8062,"▁gun":8063,"▁Instagram":8064,"▁haven":8065,"▁schedule":8066,"▁wouldn":8067,"rb":8068,"??":8069,"▁Rock":8070,"▁homes":8071,"▁compre":8072,"▁aj":8073,"ingle":8074,"@@":8075,"ieren":8076,"▁lose":8077,"vin":8078,"▁stable":8079,"orama":8080,"▁particles":8081,"Dep":8082,"enger":8083,"▁messages":8084,"▁pon":8085,"▁orders":8086,"copy":8087,"itan":8088,"▁exception":8089,"▁cow":8090,"antly":8091,"▁circumstances":8092,"▁teachers":8093,"▁Nav":8094,"adata":8095,"ija":8096,"▁tested":8097,"uries":8098,"EE":8099,"keys":8100,"Pe":8101,"iffer":8102,"▁becoming":8103,"▁fait":8104,"▁successfully":8105,"nik":8106,"▁fir":8107,"▁JSON":8108,"iza":8109,"ellen":8110,"▁joined":8111,"claim":8112,"''":8113,",-":8114,"▁raw":8115,"elines":8116,"▁updated":8117,"According":8118,"▁Line":8119,"acute":8120,"▁wonderful":8121,"▁Full":8122,"▁sections":8123,"ovid":8124,"pers":8125,"mb":8126,"▁pic":8127,"▁residents":8128,"erg":8129,"▁university":8130,"atis":8131,"scope":8132,"▁revenue":8133,"▁Method":8134,"pin":8135,"oro":8136,"quir":8137,"sort":8138,"match":8139,"isters":8140,"reshold":8141,"▁radiation":8142,"Video":8143,"aked":8144,"▁Lim":8145,"▁quantity":8146,"berry":8147,"▁kann":8148,"lad":8149,"media":8150,"Sum":8151,"▁Ap":8152,"▁zur":8153,".\",":8154,"▁killed":8155,"stead":8156,"stein":8157,"▁Jose":8158,"▁antib":8159,"Mon":8160,"avas":8161,"▁Both":8162,"▁Hy":8163,"▁rig":8164,"▁requests":8165,"▁nou":8166,"patch":8167,"▁intended":8168,"mean":8169,"▁interests":8170,"▁Only":8171,"▁html":8172,"QU":8173,"inos":8174,"andon":8175,"▁incident":8176,"bul":8177,"▁expansion":8178,"▁gest":8179,"▁poll":8180,"▁Ca":8181,"video":8182,"Po":8183,"▁managed":8184,"▁Such":8185,"IVE":8186,"mann":8187,"ancer":8188,"▁dol":8189,"rapper":8190,"frastructure":8191,"THE":8192,"loss":8193,"▁reasonable":8194,"ña":8195,"▁Chicago":8196,"▁topic":8197,"FER":8198,"▁mountain":8199,"▁ger":8200,"▁correspond":8201,"▁numerous":8202,"▁polar":8203,"▁mont":8204,"▁Sou":8205,"▁Tre":8206,"ialize":8207,"ARD":8208,"▁tar":8209,"BN":8210,"▁bear":8211,"▁talent":8212,"ushed":8213,"▁consists":8214,"▁reviews":8215,"Stack":8216,"▁responsibility":8217,"▁Sl":8218,"full":8219,"▁Where":8220,"▁Jud":8221,"▁agg":8222,"▁Soc":8223,"isc":8224,"▁symmet":8225,"▁Chief":8226,"▁compound":8227,"▁parallel":8228,"offset":8229,"category":8230,"related":8231,"appa":8232,"▁investigation":8233,"}\"":8234,"▁Special":8235,"▁virus":8236,"▁behavi":8237,"lements":8238,"▁engineering":8239,"▁passion":8240,"▁domin":8241,"bound":8242,"▁accuracy":8243,"▁Prom":8244,"▁bought":8245,"sett":8246,"role":8247,"assert":8248,"▁grav":8249,"Camera":8250,"▁Non":8251,"▁intr":8252,"▁ih":8253,"▁okay":8254,"uable":8255,"▁Point":8256,"Var":8257,"uts":8258,"▁mail":8259,"▁Action":8260,"]]":8261,"▁sang":8262,"▁princip":8263,"▁existence":8264,"overline":8265,"Mark":8266,"▁fond":8267,"▁Care":8268,"UB":8269,"▁loan":8270,"green":8271,"▁degrees":8272,"cf":8273,"GO":8274,"▁allowing":8275,"▁Ak":8276,"▁positions":8277,"▁ale":8278,"▁saved":8279,"▁symptoms":8280,"▁watching":8281,"▁assistance":8282,"▁Old":8283,"▁Eu":8284,"anam":8285,"charge":8286,"illi":8287,"▁buildings":8288,"lang":8289,"tim":8290,"▁compens":8291,"namespace":8292,"▁mine":8293,"▁Gi":8294,"▁Invest":8295,"▁resident":8296,"roke":8297,"▁NS":8298,"▁entered":8299,"rr":8300,"▁IP":8301,"ilos":8302,"oggle":8303,"▁issued":8304,"▁ended":8305,"▁mad":8306,"▁Bul":8307,"wi":8308,"acher":8309,"▁coun":8310,"ells":8311,"▁mostly":8312,"stat":8313,"▁represented":8314,"▁soci":8315,"▁Las":8316,"dec":8317,"ighter":8318,"Resource":8319,"▁Az":8320,"small":8321,"▁laun":8322,"▁eventually":8323,"▁telev":8324,"▁ig":8325,"▁Py":8326,"▁URL":8327,"dig":8328,"▁decide":8329,"▁fraction":8330,"essions":8331,"▁vote":8332,"Connection":8333,"▁cycl":8334,"JECT":8335,"tree":8336,"ocation":8337,"▁alla":8338,"▁Vict":8339,"aved":8340,"bool":8341,"Auto":8342,"▁listen":8343,"▁advance":8344,"▁Team":8345,"orney":8346,"▁compare":8347,"▁Thank":8348,"▁plays":8349,"Serv":8350,"family":8351,"istor":8352,"▁confirmed":8353,"▁fib":8354,"bow":8355,"▁formal":8356,"▁lag":8357,"Yes":8358,"aza":8359,"▁willing":8360,"▁accounts":8361,"hou":8362,"▁energ":8363,"▁dynamic":8364,"ped":8365,"▁facts":8366,"▁Por":8367,"umes":8368,"▁bol":8369,"▁Ut":8370,"▁measurements":8371,"▁occasion":8372,"▁confidence":8373,"Factory":8374,"▁photograph":8375,"▁speech":8376,"Block":8377,"▁stone":8378,"▁alcohol":8379,"▁recip":8380,"▁charges":8381,"stra":8382,"Que":8383,"▁plug":8384,"▁collected":8385,"▁Whe":8386,"dest":8387,"▁Earth":8388,"got":8389,"esome":8390,"▁functional":8391,"▁Sand":8392,"▁cooper":8393,"▁approved":8394,"▁assessment":8395,"▁hyper":8396,"▁Univers":8397,"arak":8398,"▁Opt":8399,"▁friendly":8400,"▁ends":8401,"▁Jew":8402,"▁Scott":8403,"▁Light":8404,"▁putting":8405,"▁forget":8406,"Dat":8407,"▁finite":8408,"▁belie":8409,"▁slot":8410,"▁Technology":8411,"▁jun":8412,"HO":8413,"▁Exec":8414,"Vector":8415,"▁distributed":8416,"emon":8417,"chain":8418,"▁Offic":8419,"▁Ref":8420,"rooms":8421,"child":8422,"▁ampl":8423,"▁Mur":8424,"kat":8425,"kes":8426,"agger":8427,"vy":8428,"Any":8429,"bd":8430,"▁remote":8431,"▁setup":8432,"▁exposure":8433,"▁tank":8434,"▁rough":8435,"pdf":8436,"folio":8437,"PER":8438,"onym":8439,"▁Hill":8440,"▁prison":8441,"Items":8442,"Use":8443,"acion":8444,"▁Head":8445,"amps":8446,"▁repro":8447,"DP":8448,"lass":8449,"▁adm":8450,"hl":8451,"▁twice":8452,"▁FROM":8453,"▁CC":8454,"▁bin":8455,"▁specifically":8456,"xygen":8457,"auf":8458,"arrant":8459,"pc":8460,"MenuItem":8461,"▁usual":8462,"alf":8463,"comes":8464,"▁concerns":8465,"▁secondary":8466,"ician":8467,"▁shock":8468,"ether":8469,"success":8470,"▁IV":8471,"Where":8472,"▁Pen":8473,"▁vend":8474,"▁holiday":8475,"▁recovery":8476,"▁thr":8477,"uality":8478,"▁typical":8479,"▁license":8480,"▁craft":8481,"▁Today":8482,"▁accepted":8483,"▁technologies":8484,"contr":8485,"▁equilib":8486,"▁\"+":8487,"▁Way":8488,"west":8489,"▁Lear":8490,"Term":8491,"▁Vari":8492,"▁Florida":8493,"uture":8494,"▁estimate":8495,"▁regional":8496,"▁Rest":8497,"▁youth":8498,"▁accompl":8499,"▁Hon":8500,"▁contained":8501,"Hi":8502,"▁asking":8503,"▁Network":8504,"icate":8505,"Strip":8506,"▁sheet":8507,"▁Tour":8508,"▁desired":8509,"▁minim":8510,"ibilities":8511,"▁Gar":8512,"▁Roman":8513,"}_":8514,"▁occurred":8515,"▁Arab":8516,"Stat":8517,"▁fundamental":8518,"XX":8519,"▁signs":8520,"▁prepare":8521,"asse":8522,"Abstract":8523,"▁durch":8524,"▁selling":8525,"▁nem":8526,"▁retain":8527,"omial":8528,"▁Thanks":8529,"▁butter":8530,"▁sad":8531,"ASS":8532,"▁Niger":8533,"▁locations":8534,"▁accord":8535,"▁einem":8536,"anh":8537,"PORT":8538,"▁independ":8539,"▁Foundation":8540,"▁peng":8541,"▁subt":8542,"Diff":8543,"fd":8544,"About":8545,"obs":8546,"▁vu":8547,".[":8548,"▁helpful":8549,"move":8550,"▁presentation":8551,"▁odd":8552,"▁Mah":8553,"▁implic":8554,"▁dont":8555,"▁candidate":8556,"▁charged":8557,"▁[\"":8558,"▁sudden":8559,"onna":8560,"Dev":8561,"▁Who":8562,"▁arrang":8563,"▁authors":8564,"Your":8565,"▁glo":8566,"▁clock":8567,"▁rose":8568,"prop":8569,"efined":8570,"▁facilit":8571,"▁referred":8572,"▁typically":8573,"▁chrom":8574,"▁decrease":8575,"▁absolutely":8576,"nost":8577,"▁literature":8578,"▁procedures":8579,"▁dollars":8580,"▁Cur":8581,"▁Human":8582,"▁sole":8583,"icket":8584,"Found":8585,"▁Adv":8586,"sd":8587,"▁muscle":8588,"▁scope":8589,"▁achieved":8590,"require":8591,"▁).":8592,"▁Museum":8593,"VAL":8594,"PRE":8595,"▁shel":8596,"▁tea":8597,"points":8598,"▁Cost":8599,"▁tight":8600,"▁mainly":8601,"▁γ":8602,"▁Corpor":8603,"GR":8604,"uten":8605,"▁crisis":8606,"entity":8607,"idi":8608,"▁Result":8609,"ployment":8610,"▁housing":8611,"▁duty":8612,"pages":8613,"▁membr":8614,"pool":8615,"▁temperatures":8616,"▁Ra":8617,"▁lux":8618,"fortunately":8619,"!!!":8620,"Rel":8621,"common":8622,"ilo":8623,"▁horse":8624,"▁cot":8625,"PU":8626,"igt":8627,"▁accommod":8628,"▁employment":8629,"▁PS":8630,"▁Sar":8631,"▁possibility":8632,"▁indeed":8633,"▁expensive":8634,"▁electronic":8635,"▁orange":8636,"▁seat":8637,"▁prompt":8638,"▁Administ":8639,"ATH":8640,"▁judgment":8641,"▁browser":8642,"▁Richard":8643,"▁vehicles":8644,"▁chat":8645,"orough":8646,"uzz":8647,"cknow":8648,"atre":8649,"▁Cup":8650,"plex":8651,"▁banks":8652,"omer":8653,"▁preced":8654,"▁Cre":8655,"▁thin":8656,"▁mouth":8657,"Grid":8658,"security":8659,"▁broken":8660,"iso":8661,"issions":8662,"▁Louis":8663,"▁sharing":8664,"▁funding":8665,"formed":8666,"BD":8667,"▁BE":8668,"▁Ltd":8669,"▁tips":8670,"▁neces":8671,"emia":8672,"▁wheel":8673,"ILL":8674,"▁consideration":8675,"▁derived":8676,"LC":8677,"adian":8678,"▁compact":8679,"Reader":8680,"Format":8681,"hash":8682,"▁weap":8683,"Process":8684,"speed":8685,"▁natur":8686,"models":8687,"▁Java":8688,"▁division":8689,"oor":8690,"▁Train":8691,"▁Global":8692,"▁Map":8693,"▁thousands":8694,"eren":8695,"dam":8696,"▁aqui":8697,"▁cel":8698,"eding":8699,"▁Ken":8700,"▁grain":8701,"▁yes":8702,"▁export":8703,"▁Pac":8704,"▁pix":8705,"Str":8706,"▁automatically":8707,"idation":8708,"▁Dat":8709,"▁layout":8710,"onto":8711,"omorph":8712,"▁relief":8713,"▁aid":8714,"▁CEO":8715,"Price":8716,"Est":8717,"▁Far":8718,"month":8719,"WE":8720,"▁vintage":8721,"▁unf":8722,")).":8723,"RP":8724,"▁corre":8725,"Settings":8726,"▁Jul":8727,"▁eating":8728,"▁evolution":8729,">,":8730,"▁('":8731,"▁strategies":8732,"▁parse":8733,"oca":8734,"▁gap":8735,"ups":8736,"▁dimension":8737,"▁proud":8738,"▁fro":8739,"▁divided":8740,"▁columns":8741,"ipp":8742,"▁fee":8743,"▁Theorem":8744,"LA":8745,"▁urban":8746,"Select":8747,"nor":8748,"▁visible":8749,"▁institutions":8750,"▁explore":8751,"▁dess":8752,"atz":8753,"▁passing":8754,"▁greatest":8755,"▁endl":8756,"▁considering":8757,"▁Page":8758,"orders":8759,"Show":8760,"tra":8761,"bridge":8762,"STR":8763,"▁buffer":8764,"sup":8765,"Thread":8766,"▁cub":8767,"▁pregn":8768,"▁ny":8769,"ceived":8770,"Why":8771,"▁defense":8772,"zeta":8773,"▁Account":8774,"▁Hor":8775,"▁€":8776,"▁agents":8777,"▁native":8778,"utf":8779,"▁Circ":8780,"Obj":8781,"▁Centre":8782,"▁phosph":8783,"asp":8784,"▁Copy":8785,"tu":8786,"▁marked":8787,"Storage":8788,"km":8789,"%)":8790,"bes":8791,"▁Cond":8792,"nail":8793,"▁creation":8794,"rij":8795,"▁participants":8796,"▁chem":8797,"▁indicates":8798,"▁quel":8799,"▁Martin":8800,"▁dal":8801,"▁grade":8802,"▁raz":8803,"▁Pop":8804,"efficient":8805,"linear":8806,"▁partnership":8807,"▁LA":8808,"Icon":8809,"▁basket":8810,"Then":8811,"▁partial":8812,"▁shell":8813,"stop":8814,"▁roof":8815,"NAME":8816,"owe":8817,"▁Hospital":8818,"▁artists":8819,"effect":8820,"▁freedom":8821,"ifies":8822,"▁cum":8823,"Contact":8824,"▁vul":8825,"▁spr":8826,"▁criminal":8827,"▁rid":8828,"clos":8829,"▁License":8830,"▁principle":8831,"▁faster":8832,"▁SP":8833,"Empty":8834,"MC":8835,"▁impossible":8836,"▁reject":8837,"▁domestic":8838,"▁studio":8839,"uen":8840,"variant":8841,"▁writer":8842,"aws":8843,"▁accurate":8844,"ré":8845,"▁statements":8846,"lower":8847,"▁leaf":8848,"orte":8849,"iko":8850,"▁oh":8851,"BER":8852,"een":8853,"▁fram":8854,"▁wet":8855,"▁hun":8856,"high":8857,"▁honest":8858,"▁Sup":8859,"ificate":8860,"▁Da":8861,"▁Error":8862,"IES":8863,"▁Community":8864,"▁dre":8865,"▁meat":8866,"▁ordered":8867,"▁hidden":8868,"▁sph":8869,"Tem":8870,"▁distingu":8871,"Login":8872,"▁Chapter":8873,"▁metab":8874,"akh":8875,"sal":8876,"▁defect":8877,"▁plt":8878,"cope":8879,"amber":8880,"▁EU":8881,"▁TABLE":8882,"iu":8883,"town":8884,"▁peak":8885,"▁perspective":8886,"inda":8887,"cules":8888,"BI":8889,"▁mini":8890,"liament":8891,"▁improvement":8892,"▁drugs":8893,"▁ran":8894,"lla":8895,"nbsp":8896,"▁swim":8897,"ingly":8898,"▁Love":8899,"▁lights":8900,"▁Bon":8901,"ahl":8902,"​​":8903,"▁sizes":8904,"▁admin":8905,"▁dedicated":8906,"Amer":8907,"▁ga":8908,"AF":8909,"▁coal":8910,"▁Asia":8911,"▁fell":8912,"assa":8913,"▁manifest":8914,"▁Lib":8915,"cious":8916,"idents":8917,"axis":8918,"serve":8919,"▁frequently":8920,"▁pent":8921,"▁Spe":8922,"▁advent":8923,"rica":8924,"uent":8925,"▁married":8926,"▁posit":8927,"▁blank":8928,"▁moder":8929,"appro":8930,"▁tam":8931,"▁supporting":8932,"Ag":8933,"▁Ng":8934,"=-":8935,"▁ast":8936,"▁impress":8937,"▁walls":8938,"esta":8939,"contact":8940,"jen":8941,"▁binding":8942,"Auth":8943,"▁taste":8944,"▁pd":8945,"itis":8946,"▁sul":8947,"▁LE":8948,"Track":8949,"account":8950,"▁mater":8951,"avel":8952,"▁ole":8953,"▁stored":8954,"▁Lee":8955,"▁rooms":8956,"▁hence":8957,"Two":8958,"▁episode":8959,"watch":8960,"▁Maj":8961,"▁scientific":8962,"Pa":8963,"▁genes":8964,"OUR":8965,"anna":8966,"▁lip":8967,"▁stability":8968,"equiv":8969,"▁limits":8970,"▁Pak":8971,"▁committed":8972,"Photo":8973,"Bit":8974,"▁AC":8975,"▁atmosphere":8976,"▁Last":8977,"noon":8978,"unes":8979,"▁windows":8980,"TC":8981,"▁Init":8982,"username":8983,"▁Medical":8984,"ository":8985,"ocolate":8986,"mg":8987,"▁manufacturing":8988,"zel":8989,"route":8990,"empty":8991,"▁therapy":8992,"ONE":8993,"▁Word":8994,"<!--":8995,"▁calling":8996,"▁opposite":8997,"▁Women":8998,"▁outdoor":8999,"▁buying":9000,"Arg":9001,"covery":9002,"▁Look":9003,"▁eleg":9004,"▁Media":9005,"▁Italy":9006,"nom":9007,"▁spending":9008,"▁waves":9009,"▁justify":9010,"▁folder":9011,"▁painting":9012,"▁mixture":9013,"▁Labor":9014,"▁consumer":9015,"▁entirely":9016,"itled":9017,"▁involve":9018,"▁##":9019,"▁promote":9020,"▁forced":9021,"cp":9022,"yer":9023,"hesis":9024,"▁spectrum":9025,"▁Ol":9026,"▁monitoring":9027,"▁fle":9028,"▁Click":9029,"▁letters":9030,"▁tables":9031,"▁Bh":9032,"▁lived":9033,"▁attached":9034,"Gu":9035,"▁turns":9036,"Screen":9037,"▁consumption":9038,"▁supposed":9039,"▁tap":9040,"otos":9041,"▁grande":9042,"▁fluid":9043,"focus":9044,"▁hyd":9045,"bell":9046,"▁breath":9047,"imos":9048,"▁installation":9049,"▁plenty":9050,"HS":9051,"▁analyt":9052,"itionally":9053,"▁Nam":9054,"▁thermal":9055,"iverse":9056,"▁ai":9057,"itas":9058,"▁env":9059,"activ":9060,"▁authorities":9061,"▁discovered":9062,"▁Das":9063,"▁repair":9064,"▁Charles":9065,"MB":9066,"▁shoes":9067,"▁Music":9068,"neg":9069,"▁Van":9070,"▁blocks":9071,"▁designs":9072,"▁oblig":9073,"▁winning":9074,"▁kill":9075,"▁instructions":9076,"▁Party":9077,"▁houses":9078,"born":9079,"Function":9080,"▁hero":9081,"▁vas":9082,"VE":9083,"catch":9084,"usi":9085,"Find":9086,"▁employed":9087,"▁bridge":9088,"▁integral":9089,"Section":9090,"▁evol":9091,"▁DC":9092,"▁Soft":9093,"▁ty":9094,"aders":9095,"Core":9096,"Theme":9097,"▁citizens":9098,"otted":9099,"ailability":9100,"▁Os":9101,"ACT":9102,"▁clar":9103,"▁capable":9104,"▁merc":9105,"▁Kn":9106,"▁films":9107,"▁experts":9108,"▁Valley":9109,"▁colon":9110,"▁ell":9111,"▁Young":9112,"▁Ga":9113,"enden":9114,"▁historical":9115,"-,":9116,"▁Johnson":9117,"track":9118,"▁CR":9119,"▁reader":9120,"▁Para":9121,"▁mouse":9122,"▁Sans":9123,"▁trop":9124,"FR":9125,"igate":9126,"brid":9127,"▁Cho":9128,"▁Expl":9129,"▁basically":9130,"sis":9131,"▁HD":9132,"▁Beach":9133,"anno":9134,"▁factory":9135,"}[":9136,"▁ride":9137,"Pay":9138,"hensive":9139,"▁scatter":9140,"▁conserv":9141,"▁crack":9142,"▁Medic":9143,"▁minimal":9144,"coin":9145,"▁west":9146,"Just":9147,"ussi":9148,"Student":9149,"Background":9150,"imi":9151,"▁foi":9152,"erto":9153,"Mem":9154,"▁feels":9155,"Pop":9156,"▁unknown":9157,"▁cutting":9158,"▁pok":9159,"READ":9160,"▁remark":9161,"▁transformation":9162,"Email":9163,"Met":9164,"▁Times":9165,"azz":9166,"GC":9167,"Controls":9168,"▁Master":9169,"edu":9170,"▁justice":9171,"▁pens":9172,"▁stores":9173,"stone":9174,"elect":9175,"Access":9176,"▁kg":9177,"▁tube":9178,"Good":9179,"▁matters":9180,"selected":9181,"▁sexual":9182,"▁applicable":9183,"proof":9184,"rival":9185,"▁corporate":9186,"FC":9187,"▁possibly":9188,"DU":9189,"Vari":9190,"▁hall":9191,"▁About":9192,"raine":9193,"▁effectively":9194,"▁honor":9195,"▁ath":9196,"▁stands":9197,"Integer":9198,"elli":9199,"▁thi":9200,"anj":9201,"▁receiving":9202,"▁Gre":9203,"uti":9204,"▁bottle":9205,"oven":9206,"expected":9207,"▁ip":9208,"▁Video":9209,"▁integer":9210,"▁emergency":9211,"▁alleged":9212,"KE":9213,"▁Som":9214,"▁canvas":9215,"▁reform":9216,"sur":9217,"▁quiet":9218,"▁judge":9219,"▁jpg":9220,"▁voy":9221,"Si":9222,")*":9223,"archar":9224,"▁thoughts":9225,"▁narrow":9226,"aci":9227,"▁Another":9228,"▁Creat":9229,"OCK":9230,"channel":9231,"▁closely":9232,"▁duration":9233,"craft":9234,"▁forth":9235,"▁fel":9236,"▁Cu":9237,"▁lect":9238,"▁manual":9239,"FO":9240,"▁kinds":9241,"▁replaced":9242,"mond":9243,"▁Order":9244,"▁compounds":9245,"▁reactions":9246,"▁Fest":9247,"BE":9248,"she":9249,"▁sounds":9250,"May":9251,"▁appeal":9252,"aching":9253,"▁tang":9254,"Long":9255,"▁cant":9256,"▁Manager":9257,"▁delivered":9258,"eda":9259,"ijk":9260,"▁Virgin":9261,"▁Next":9262,"▁authent":9263,"▁Flo":9264,"▁launched":9265,"controller":9266,"▁brings":9267,"▁directed":9268,"blog":9269,"▁confident":9270,"▁shares":9271,"Android":9272,"▁birthday":9273,"▁Wall":9274,"▁objective":9275,"▁header":9276,"ipher":9277,"▁Security":9278,"Light":9279,"ruck":9280,"filename":9281,"▁answers":9282,"results":9283,"Play":9284,"▁tox":9285,"▁programme":9286,"dimensional":9287,"▁ft":9288,"▁adequ":9289,"onav":9290,"▁strongly":9291,"pend":9292,".]":9293,"▁oxygen":9294,"▁mg":9295,"▁contra":9296,"▁regulation":9297,"Rating":9298,"▁kal":9299,"▁Saf":9300,"▁arguments":9301,"displaystyle":9302,"▁superior":9303,"▁volunte":9304,"enti":9305,"▁amounts":9306,"amo":9307,"cloud":9308,"▁Japanese":9309,"rase":9310,"▁worry":9311,"▁Series":9312,"▁inspir":9313,"▁munic":9314,"eri":9315,"▁hem":9316,"border":9317,"▁Jac":9318,"erk":9319,"▁Moreover":9320,"▁executive":9321,"MI":9322,"▁Value":9323,"Lambda":9324,"▁crime":9325,"▁regulations":9326,"▁conflict":9327,"▁lin":9328,"▁arms":9329,"Ang":9330,"▁measurement":9331,"▁Sel":9332,"handle":9333,"▁minus":9334,"▁bread":9335,"▁whereas":9336,"aining":9337,"▁mayor":9338,"▁Sir":9339,"▁proved":9340,"imately":9341,"chron":9342,"▁gram":9343,"ande":9344,"▁kat":9345,"▁Ok":9346,"▁Royal":9347,"library":9348,"▁marg":9349,"▁sister":9350,"▁Ein":9351,"▁ada":9352,"▁rum":9353,"▁capture":9354,"——":9355,"▁suggests":9356,"▁evaluation":9357,"▁arrived":9358,"▁Event":9359,"▁callback":9360,"nn":9361,"▁Include":9362,"▁electrical":9363,"▁Mrs":9364,"________________":9365,"▁Field":9366,"rer":9367,"▁faire":9368,"▁beat":9369,"▁discount":9370,"Float":9371,".’":9372,"apers":9373,"▁directory":9374,"▁networks":9375,"▁Corp":9376,"tri":9377,"\"\"\"":9378,"▁suc":9379,"sn":9380,"▁controls":9381,"prot":9382,"▁quer":9383,"byte":9384,"▁Environment":9385,"▁gent":9386,"▁defend":9387,"irk":9388,"ERR":9389,"▁hers":9390,"uno":9391,"▁Town":9392,"▁speaking":9393,"CHAR":9394,"▁kick":9395,"▁draft":9396,"▁Local":9397,"roduction":9398,"▁Middle":9399,"▁Trust":9400,"▁transmission":9401,"▁modified":9402,"▁fetch":9403,"▁DI":9404,"▁valuable":9405,"ophy":9406,"▁funny":9407,"dx":9408,"▁boost":9409,"gence":9410,"▁stopped":9411,"gel":9412,"Mapping":9413,"▁serving":9414,"Types":9415,"▁guests":9416,"▁edit":9417,":\\":9418,"▁tissue":9419,"settings":9420,"direct":9421,"lov":9422,"▁colle":9423,"▁Henry":9424,"▁uncertain":9425,"▁Blo":9426,"▁Atl":9427,"▁edition":9428,"dfrac":9429,"▁Israel":9430,"▁infrastructure":9431,"▁conversation":9432,"anal":9433,"deg":9434,"▁absence":9435,"ned":9436,"▁registered":9437,"▁redirect":9438,"▁acts":9439,"oses":9440,"▁transl":9441,"ested":9442,"▁Aff":9443,"?.":9444,"▁summary":9445,"JSON":9446,"▁cleaning":9447,"lia":9448,"anation":9449,"▁animation":9450,"▁Policy":9451,"tras":9452,"▁lad":9453,"▁critic":9454,"adv":9455,"▁fellow":9456,"▁horizontal":9457,"Tag":9458,"predict":9459,"izza":9460,"▁Term":9461,"▁dialog":9462,"atto":9463,"xx":9464,"▁religious":9465,"BR":9466,"▁believed":9467,"▁recon":9468,"▁kel":9469,"cpp":9470,"property":9471,"▁Process":9472,"emma":9473,"wrap":9474,"▁inches":9475,"▁dip":9476,"▁preferred":9477,"\":\"":9478,"▁trading":9479,"▁deck":9480,"▁rein":9481,"floor":9482,"Fi":9483,"▁songs":9484,"▁yo":9485,"Para":9486,"world":9487,"ibles":9488,"▁KEY":9489,"▁filed":9490,"▁findings":9491,"aret":9492,"▁afternoon":9493,"Second":9494,"▁hole":9495,"▁Mu":9496,"bus":9497,"▁Police":9498,"▁bike":9499,"Pat":9500,"ulty":9501,"▁Pot":9502,"▁fees":9503,"▁chlor":9504,"▁dogs":9505,"Pack":9506,"▁contribution":9507,"▁ov":9508,"▁courses":9509,"aph":9510,"ennis":9511,"Store":9512,"▁radius":9513,"ulating":9514,"hem":9515,"▁association":9516,"wait":9517,"rical":9518,"▁integration":9519,"arga":9520,"icans":9521,"▁Democr":9522,"▁ancient":9523,"▁dinner":9524,"express":9525,"▁ye":9526,"ACE":9527,"holders":9528,"▁Cult":9529,"opp":9530,"stood":9531,"▁Ire":9532,"▁rod":9533,"▁provider":9534,"asc":9535,"▁repeated":9536,"▁Sem":9537,"▁wal":9538,"▁ocean":9539,"▁PH":9540,"ár":9541,"▁Engineering":9542,"▁principles":9543,"▁camb":9544,"rah":9545,"▁vai":9546,"bn":9547,"FOR":9548,"▁hur":9549,"usa":9550,"▁chicken":9551,"▁rib":9552,"▁fon":9553,"▁proteins":9554,"radius":9555,"rez":9556,"▁Right":9557,"▁moves":9558,"pur":9559,"ymph":9560,"▁renew":9561,"▁updates":9562,"▁Luc":9563,"▁AI":9564,"▁Coll":9565,"▁MS":9566,"▁begins":9567,"Med":9568,"▁observations":9569,"▁somewhat":9570,"kov":9571,"▁Jones":9572,"bat":9573,"▁machines":9574,"▁pare":9575,"▁analys":9576,"▁Application":9577,"▁Division":9578,"▁educational":9579,"rition":9580,"▁vast":9581,"▁grown":9582,"router":9583,"▁closer":9584,"▁myst":9585,"esterday":9586,"▁enjoyed":9587,"DK":9588,"▁batch":9589,"▁pharm":9590,"▁newsp":9591,"▁kam":9592,"rif":9593,"▁inher":9594,"▁kr":9595,"access":9596,"▁posted":9597,"AI":9598,"unda":9599,"▁recept":9600,"▁soul":9601,"▁Rom":9602,"▁aber":9603,"▁subjects":9604,"gov":9605,"▁transaction":9606,"▁massive":9607,"▁optimal":9608,"▁adopted":9609,"uling":9610,"▁twenty":9611,"▁Carl":9612,"emporary":9613,"Many":9614,".....":9615,"anish":9616,"▁Update":9617,"▁cake":9618,"▁discipl":9619,"▁warn":9620,"▁SO":9621,"rupted":9622,"pres":9623,"▁commitment":9624,"aze":9625,"axy":9626,"▁coverage":9627,"▁IM":9628,"▁tough":9629,"▁Lie":9630,"▁terminal":9631,"▁Total":9632,"▁desire":9633,"▁exciting":9634,"▁restaurants":9635,"▁tet":9636,"DC":9637,"isto":9638,"▁concrete":9639,"▁Ce":9640,"▁layers":9641,"idet":9642,"▁tells":9643,"▁shipping":9644,"kel":9645,"▁imper":9646,"▁pm":9647,"cie":9648,"users":9649,"▁neutral":9650,"▁examination":9651,"ferred":9652,"▁override":9653,"RED":9654,"▁introduction":9655,"▁preparation":9656,"▁Dub":9657,"cache":9658,"Another":9659,"▁quotes":9660,"▁compos":9661,"▁recognized":9662,"▁parking":9663,"Display":9664,"ynamic":9665,"super":9666,"▁approaches":9667,"▁categories":9668,"buffer":9669,"▁heating":9670,"▁semi":9671,"▁equilibrium":9672,"irth":9673,"▁mic":9674,"▁Material":9675,"tor":9676,"▁extensive":9677,"Di":9678,"▁joy":9679,"▁warrant":9680,"▁detection":9681,"▁lift":9682,"▁kin":9683,"▁pom":9684,"▁Orig":9685,"custom":9686,"amy":9687,"ificial":9688,"▁Lu":9689,"▁Georg":9690,"Example":9691,"▁quantum":9692,"icular":9693,"▁crystal":9694,"▁vie":9695,"▁Rh":9696,"▁Cross":9697,"▁posts":9698,"▁statist":9699,"▁scr":9700,"▁bringing":9701,"▁assumed":9702,"▁Rs":9703,"John":9704,"Also":9705,"▁marriage":9706,"▁aug":9707,"▁fold":9708,"▁controlled":9709,"▁Market":9710,"▁jet":9711,"itos":9712,"▁Support":9713,"▁intensity":9714,"ATA":9715,"IGN":9716,"wing":9717,"▁dict":9718,"▁interact":9719,"Edit":9720,"forc":9721,"SL":9722,"children":9723,"▁cyl":9724,"▁belief":9725,"▁fn":9726,"▁rear":9727,"▁ham":9728,"▁trib":9729,"▁bodies":9730,"▁vital":9731,"▁subs":9732,"▁supports":9733,"▁compat":9734,"uum":9735,"▁rows":9736,"▁Take":9737,"▁severe":9738,"apped":9739,"▁bio":9740,"ogene":9741,"▁cra":9742,"anches":9743,"Cle":9744,"▁provisions":9745,"HERE":9746,"▁adults":9747,"▁eh":9748,"▁clothes":9749,"▁remained":9750,"▁diverse":9751,"IND":9752,"▁defe":9753,"▁handling":9754,"▁valor":9755,"▁mant":9756,"▁Search":9757,"▁linked":9758,"pection":9759,")}{":9760,"▁colorful":9761,"mus":9762,"▁diseases":9763,"▁gray":9764,"▁wealth":9765,"▁ordinary":9766,"alan":9767,"▁Hotel":9768,"▁lies":9769,"itu":9770,"▁Family":9771,"▁necessarily":9772,"▁operate":9773,"Il":9774,"▁laptop":9775,"▁Bes":9776,"teen":9777,"▁seamless":9778,"▁turb":9779,"▁accum":9780,"▁implemented":9781,"Del":9782,"▁dance":9783,"astern":9784,"▁Arial":9785,"▁matches":9786,"------------":9787,"vere":9788,"▁pitch":9789,"Tree":9790,"▁socket":9791,"▁cute":9792,"▁widely":9793,"▁fault":9794,"▁possess":9795,"▁bigger":9796,"▁choices":9797,"▁Plus":9798,"SELECT":9799,"▁negoti":9800,"▁rice":9801,"Thanks":9802,"▁oct":9803,"▁activation":9804,"▁conclusion":9805,"▁Task":9806,"register":9807,".),":9808,"coll":9809,"aneous":9810,"▁skill":9811,"▁memb":9812,"▁destination":9813,"▁Hence":9814,"▁Italian":9815,"▁acknow":9816,"made":9817,"icar":9818,"Password":9819,"picture":9820,"▁Wik":9821,"▁cheap":9822,"▁Haw":9823,"umps":9824,"▁nerv":9825,"▁Mit":9826,"Collection":9827,"▁Tay":9828,"urers":9829,"student":9830,"▁alk":9831,"▁philos":9832,"mac":9833,"legal":9834,"ometer":9835,"▁arbit":9836,"ulator":9837,"prene":9838,"▁Ram":9839,"▁pig":9840,"Oh":9841,"▁marks":9842,"eties":9843,"▁Function":9844,"▁advertising":9845,"REE":9846,"▁(@":9847,"ogo":9848,"▁conve":9849,"flex":9850,"▁murder":9851,"chat":9852,"▁Calcul":9853,"▁tah":9854,"▁caught":9855,"▁boys":9856,"news":9857,"▁neighborhood":9858,";&":9859,"Category":9860,"semble":9861,"▁assign":9862,"Properties":9863,"▁consumers":9864,"▁obviously":9865,"▁interactions":9866,"▁osc":9867,"RS":9868,"▁labels":9869,"▁mechanical":9870,"▁extend":9871,"▁Indones":9872,"safe":9873,"▁storm":9874,"lywood":9875,"▁situations":9876,"▁declar":9877,"▁seeking":9878,"▁introduce":9879,"missions":9880,"▁surrounding":9881,"▁medi":9882,"▁Sea":9883,"▁Ep":9884,"Ev":9885,"RES":9886,"▁gib":9887,"▁undert":9888,"▁medicine":9889,"▁Systems":9890,"present":9891,"▁trouble":9892,"▁papers":9893,"▁acting":9894,"▁decades":9895,"apor":9896,"▁planned":9897,"rogen":9898,"▁trigger":9899,"▁convent":9900,"▁molecular":9901,"▁concer":9902,"▁rural":9903,"▁shadow":9904,"▁cancel":9905,"▁Fac":9906,"▁Standard":9907,"▁tall":9908,"vision":9909,"Die":9910,"▁rotation":9911,"▁publish":9912,"▁Four":9913,"pad":9914,"istant":9915,"▁variation":9916,"▁buck":9917,"▁Aus":9918,"itative":9919,"ancial":9920,"uclear":9921,"Hash":9922,"▁documentation":9923,"▁flash":9924,"scribe":9925,"▁Ell":9926,"▁Conference":9927,"▁carefully":9928,"▁Eq":9929,"Bas":9930,"LO":9931,"▁sensor":9932,"▁Input":9933,"abstract":9934,"▁Jun":9935,"esh":9936,"▁leather":9937,"▁Fun":9938,"▁meg":9939,"▁implies":9940,"▁hydrogen":9941,"icker":9942,"▁Pack":9943,"inds":9944,"▁sod":9945,"▁Rod":9946,"views":9947,"▁”":9948,"Well":9949,"Rect":9950,"Sigma":9951,"ANG":9952,"yg":9953,"▁Dar":9954,"▁fis":9955,"erta":9956,"▁hang":9957,"seg":9958,"▁submit":9959,"instance":9960,"▁Print":9961,"▁Mill":9962,"nc":9963,"▁Daniel":9964,"▁ourselves":9965,"rick":9966,"Every":9967,"▁laugh":9968,"▁succeed":9969,"master":9970,"▁ud":9971,"▁Online":9972,"Folder":9973,"▁attacks":9974,"▁pit":9975,"rating":9976,"▁competitive":9977,"▁owned":9978,"▁flux":9979,"▁visitors":9980,"capt":9981,"▁Kim":9982,"▁jew":9983,"▁household":9984,"▁vid":9985,"▁criteria":9986,"▁convenient":9987,"async":9988,"▁proces":9989,"quant":9990,"letter":9991,"▁moments":9992,"▁obst":9993,"▁Bol":9994,"▁integrated":9995,"Local":9996,"▁mens":9997,"▁ingredients":9998,"▁movies":9999,"quis":10000,"▁styl":10001,"▁contribute":10002,"▁permanent":10003,"▁drag":10004,"esse":10005,"▁bars":10006,"nde":10007,"▁violence":10008,"Account":10009,"▁cable":10010,"abetes":10011,"▁PO":10012,"enza":10013,"▁candidates":10014,"▁investors":10015,"▁logic":10016,"erry":10017,"▁busy":10018,"istent":10019,"etry":10020,"Make":10021,"▁entity":10022,"▁PA":10023,"omes":10024,"▁payments":10025,"utch":10026,"▁approval":10027,"jango":10028,"▁slowly":10029,"▁channels":10030,"NN":10031,"▁heav":10032,"SU":10033,"tool":10034,"akk":10035,"▁detected":10036,"▁ster":10037,"▁cir":10038,"▁shut":10039,"global":10040,"SM":10041,"elo":10042,"▁architecture":10043,"▁vin":10044,"ensed":10045,"▁BY":10046,"▁Exception":10047,"▁trail":10048,"istas":10049,"Div":10050,"EP":10051,"High":10052,"oren":10053,"iera":10054,"▁Polit":10055,"execute":10056,"▁Ox":10057,"▁Angeles":10058,"don":10059,"▁prod":10060,"▁Mexico":10061,"▁ile":10062,"▁agencies":10063,"▁mountains":10064,"mediate":10065,"tan":10066,"▁immediate":10067,"▁Kr":10068,"▁multip":10069,"Area":10070,"▁ker":10071,"▁claimed":10072,"Day":10073,"uler":10074,"slot":10075,"fi":10076,"▁contents":10077,"▁frag":10078,"sample":10079,"▁keys":10080,"▁perfectly":10081,"Instrument":10082,"Sur":10083,"Valid":10084,"ENC":10085,"KEY":10086,"▁apps":10087,"Person":10088,"Before":10089,"▁Custom":10090,"▁lake":10091,"▁gear":10092,"▁Index":10093,"Return":10094,"▁meal":10095,"▁Jr":10096,"▁largely":10097,"Effect":10098,"▁lig":10099,"amount":10100,"inue":10101,"▁slide":10102,"details":10103,"▁kl":10104,"▁thu":10105,"▁provision":10106,"▁sentence":10107,"▁loading":10108,"city":10109,"▁originally":10110,"zero":10111,"dependency":10112,"▁subsequent":10113,"▁Effect":10114,"▁Army":10115,"haust":10116,"▁unable":10117,"▁dose":10118,"profile":10119,"upload":10120,"▁Chair":10121,"hidden":10122,"▁abc":10123,"▁primarily":10124,"ollowing":10125,"▁producing":10126,"▁beam":10127,"▁amer":10128,"▁drain":10129,"Values":10130,"!”":10131,"▁sup":10132,"ulas":10133,"▁strip":10134,"▁Win":10135,"▁ease":10136,"itivity":10137,"▁powers":10138,"▁union":10139,"▁Ly":10140,")^":10141,"▁particle":10142,"isen":10143,"ativa":10144,"plugin":10145,"resp":10146,"▁controller":10147,"ibus":10148,"Async":10149,"▁dimensions":10150,"▁beer":10151,"▁steam":10152,"▁rapidly":10153,"▁Australian":10154,"pons":10155,"ryst":10156,"dated":10157,"▁actor":10158,"▁contro":10159,"▁industries":10160,"▁DO":10161,"▁bowl":10162,"fold":10163,"▁nan":10164,"found":10165,"quet":10166,"IX":10167,"▁planet":10168,"▁disk":10169,"iral":10170,"▁spons":10171,"▁coc":10172,"▁dish":10173,"▁granted":10174,"▁carrying":10175,"adium":10176,"▁nap":10177,"▁IO":10178,"VA":10179,"rand":10180,"ounce":10181,"▁mul":10182,"amic":10183,"▁Have":10184,"▁academic":10185,"▁gender":10186,"▁Tw":10187,"arta":10188,"▁herself":10189,"▁periods":10190,"▁Week":10191,"▁Cath":10192,"▁crypt":10193,"aku":10194,"▁operators":10195,"Parser":10196,"▁submitted":10197,"▁reliable":10198,"outs":10199,"▁protest":10200,"law":10201,"▁thousand":10202,"▁Jim":10203,"eper":10204,"pal":10205,"Users":10206,"▁Select":10207,"▁Anda":10208,"▁requirement":10209,"▁reducing":10210,"▁Finally":10211,"gage":10212,"▁Tool":10213,"▁NY":10214,"panel":10215,"methyl":10216,"▁stages":10217,"rik":10218,"▁entitled":10219,"▁infection":10220,"Sec":10221,"elly":10222,"comment":10223,"agem":10224,"esis":10225,"▁encourage":10226,"▁considerable":10227,"▁fairly":10228,"▁gan":10229,"vor":10230,"aded":10231,"two":10232,"▁Put":10233,"rine":10234,"▁grey":10235,"▁ges":10236,"square":10237,"▁veter":10238,"Luc":10239,"▁sud":10240,"▁Space":10241,"ulu":10242,"▁east":10243,"***":10244,"▁flying":10245,"▁Store":10246,"Other":10247,"Although":10248,"obe":10249,"▁haz":10250,"asts":10251,"▁covers":10252,"Delete":10253,"▁Ireland":10254,"▁Furthermore":10255,"there":10256,"’,":10257,"uran":10258,"▁purchased":10259,"▁eigen":10260,"▁priority":10261,"▁Egypt":10262,"▁dot":10263,"▁enemy":10264,"UC":10265,"subject":10266,"iley":10267,"ASE":10268,"uting":10269,"▁aircraft":10270,"▁nurs":10271,"Names":10272,"▁recording":10273,"oso":10274,"nut":10275,"switch":10276,"▁maps":10277,"amine":10278,"▁Hard":10279,"▁Ohio":10280,"▁kw":10281,"onia":10282,"Alignment":10283,"▁Ka":10284,"▁bug":10285,"▁kor":10286,"Offset":10287,"▁adds":10288,"Session":10289,"▁dangerous":10290,"▁Ham":10291,"plication":10292,"jan":10293,"bling":10294,"▁Santa":10295,"forcement":10296,"uras":10297,"▁schema":10298,"rod":10299,"▁bench":10300,"icul":10301,"▁BO":10302,"▁extreme":10303,"▁comprehensive":10304,"▁upload":10305,"▁Commun":10306,"▁terror":10307,"▁Ros":10308,"▁roles":10309,"▁television":10310,"illes":10311,"ilation":10312,"IONS":10313,"erved":10314,"▁Islam":10315,"▁surgery":10316,"▁victory":10317,"▁cluster":10318,"orship":10319,"▁characteristic":10320,"▁responses":10321,"Copy":10322,"Root":10323,"▁worse":10324,"▁diameter":10325,"▁enzym":10326,"▁neither":10327,"▁Wat":10328,"iot":10329,"▁Exp":10330,"▁Williams":10331,"▁anticip":10332,"▁demonstrated":10333,"region":10334,"▁clip":10335,"wd":10336,"▁nodes":10337,"▁Professor":10338,"ITH":10339,"▁tin":10340,"▁warning":10341,"▁Bow":10342,"mel":10343,"Mult":10344,"▁facing":10345,"itate":10346,"▁premium":10347,"▁understood":10348,"▁Before":10349,"▁laser":10350,"batch":10351,"▁risks":10352,"▁Joseph":10353,"riers":10354,"Timeout":10355,"sto":10356,"▁emotional":10357,"hora":10358,"activity":10359,"áp":10360,"▁Wild":10361,"▁inspired":10362,"▁Scot":10363,"▁determination":10364,"▁bid":10365,"twitter":10366,"illo":10367,"git":10368,"▁Rome":10369,"▁execute":10370,"MAN":10371,"▁fighting":10372,"▁conform":10373,"▁structural":10374,"▁sensitive":10375,"▁assigned":10376,"▁meetings":10377,"▁listening":10378,"▁Ren":10379,"▁sustainable":10380,"▁Jon":10381,"▁contributions":10382,"▁ib":10383,"Option":10384,"▁pill":10385,"▁Path":10386,"MAX":10387,"▁Bad":10388,"Spring":10389,"▁democr":10390,"rant":10391,"iac":10392,"Take":10393,"▁Common":10394,"▁reput":10395,"▁inequ":10396,"▁propag":10397,"▁molecules":10398,"clip":10399,"▁bare":10400,"▁reporting":10401,"▁printed":10402,"▁fishing":10403,"arantee":10404,"▁Analysis":10405,"cost":10406,"chester":10407,"mov":10408,"mun":10409,"▁Ess":10410,"plus":10411,"▁consent":10412,"▁gem":10413,"▁counsel":10414,"▁proportion":10415,"Sch":10416,"▁connections":10417,"mill":10418,"▁Button":10419,"▁tast":10420,"▁faces":10421,"ustration":10422,"▁involving":10423,"▁spoke":10424,"▁turning":10425,"▁Modern":10426,"hour":10427,"▁realize":10428,"▁Conf":10429,"Vol":10430,"edi":10431,"imp":10432,"cted":10433,"▁gate":10434,"▁informed":10435,"▁gli":10436,"▁monthly":10437,"UST":10438,"rolling":10439,"▁Library":10440,"▁Stock":10441,"yy":10442,"MT":10443,"▁crucial":10444,"▁reward":10445,"▁acids":10446,"▁Award":10447,"▁accordance":10448,"lymp":10449,"▁cheese":10450,"▁involves":10451,"▁cad":10452,"shot":10453,"oter":10454,"ør":10455,"’.":10456,"contains":10457,"orters":10458,"plet":10459,"▁representing":10460,"sleep":10461,"▁appointed":10462,"school":10463,"▁collaboration":10464,"▁Ps":10465,"▁innovation":10466,"▁Access":10467,"▁Academy":10468,"hyd":10469,"▁inch":10470,"▁thorough":10471,"▁Ta":10472,"zone":10473,"▁chose":10474,"▁Kom":10475,"▁strengthen":10476,"▁autor":10477,"CF":10478,"▁totally":10479,"forward":10480,"▁Instead":10481,"iences":10482,"SQL":10483,"▁doors":10484,"▁paying":10485,"▁millions":10486,"Press":10487,"buf":10488,"▁visited":10489,"ovo":10490,"▁concerning":10491,"▁evaluate":10492,"UTC":10493,"chor":10494,"▁Bang":10495,"▁musical":10496,"Look":10497,"▁recognition":10498,"▁elig":10499,"nat":10500,"▁foundation":10501,"eling":10502,"opic":10503,"▁crew":10504,"▁pointed":10505,"▁iPhone":10506,"▁happening":10507,"▁birds":10508,"▁Canadian":10509,"▁exposed":10510,"▁extr":10511,"Exec":10512,"▁breakfast":10513,"▁minister":10514,"▁déc":10515,"▁golden":10516,"ateral":10517,"loop":10518,"aco":10519,"eden":10520,"▁Walk":10521,"▁MP":10522,"▁Prime":10523,"▁hundreds":10524,"▁Contact":10525,"▁blow":10526,"▁powder":10527,"lers":10528,"▁scan":10529,"▁Cat":10530,"▁coefficient":10531,"▁ric":10532,"ordan":10533,"▁organized":10534,"▁grew":10535,"▁translation":10536,"▁winner":10537,"▁HE":10538,"▁attributes":10539,"▁brands":10540,"iamo":10541,"▁behaviour":10542,"▁fur":10543,"Full":10544,"agues":10545,"isp":10546,"Move":10547,"▁Civil":10548,"▁precis":10549,"▁essentially":10550,"illage":10551,"ytes":10552,"▁Forest":10553,"▁environ":10554,"obby":10555,"▁differential":10556,"ownt":10557,"hom":10558,"▁Ur":10559,"asm":10560,"▁Bern":10561,"ensus":10562,"Save":10563,"▁vom":10564,"▁bh":10565,"▁commonly":10566,"▁creates":10567,"▁abandon":10568,"▁infect":10569,"photo":10570,"Active":10571,"reset":10572,"▁imagine":10573,"iox":10574,"WA":10575,"▁lunch":10576,"▁api":10577,"▁ah":10578,"▁Three":10579,"▁intelligence":10580,"upp":10581,"▁Foot":10582,"▁dependent":10583,"▁termin":10584,"▁anywhere":10585,"▁plasma":10586,"▁Farm":10587,"VI":10588,"PUT":10589,"▁Sus":10590,"▁enth":10591,"▁maintained":10592,"▁Bud":10593,"▁Current":10594,"Non":10595,"charg":10596,"▁yeah":10597,"▁Kon":10598,"▁cooking":10599,"▁topics":10600,"▁enhance":10601,"▁Sn":10602,"irement":10603,"Ant":10604,"▁maxim":10605,"▁gradu":10606,"▁intel":10607,"▁shooting":10608,"▁styles":10609,"▁Short":10610,"▁apartment":10611,"▁Consider":10612,"ymmet":10613,"▁dates":10614,"what":10615,"▁petition":10616,"▁Coast":10617,"▁yesterday":10618,"Big":10619,"▁engaged":10620,"▁undefined":10621,"itage":10622,"plant":10623,"▁dealing":10624,"▁(*":10625,"camera":10626,"▁covering":10627,"▁encounter":10628,"atta":10629,"▁surprise":10630,"isted":10631,"▁army":10632,"▁pray":10633,"▁Little":10634,"▁normally":10635,"▁Cell":10636,"▁Southern":10637,"Character":10638,"irts":10639,"▁knowing":10640,"▁Ger":10641,"▁vibr":10642,"ogether":10643,"onda":10644,"ateur":10645,"▁usage":10646,"enth":10647,"dark":10648,"PROJECT":10649,"▁complement":10650,"install":10651,"▁Turn":10652,"▁Area":10653,"▁fitness":10654,"▁euro":10655,"igator":10656,"▁satisfied":10657,"▁theoret":10658,"▁signals":10659,"▁Mir":10660,"▁Ray":10661,"▁compliance":10662,"▁Spain":10663,"▁personnel":10664,"▁Saint":10665,"thread":10666,"Rest":10667,"hape":10668,"Ill":10669,"Record":10670,"▁Deb":10671,"▁everybody":10672,"nabla":10673,"islation":10674,"▁pem":10675,"Connect":10676,"▁researchers":10677,"▁permission":10678,"tail":10679,"▁taxes":10680,"▁platforms":10681,"▁moist":10682,"▁verb":10683,"▁membrane":10684,"TV":10685,"▁stabil":10686,"▁sight":10687,"▁signature":10688,"Parameter":10689,"▁Hay":10690,"wall":10691,"▁hij":10692,"AE":10693,"▁fert":10694,"wick":10695,"▁utiliz":10696,"lag":10697,"▁manufacturer":10698,"▁dropped":10699,"▁driven":10700,"▁login":10701,"note":10702,"▁acquis":10703,"▁Those":10704,"▁Columb":10705,"emplo":10706,"Are":10707,"pot":10708,"▁torch":10709,"alg":10710,"▁Pacific":10711,"nia":10712,"▁transportation":10713,"▁pipe":10714,"▁jury":10715,"▁Digital":10716,"insi":10717,"▁legisl":10718,"quired":10719,"Files":10720,"▁Clin":10721,"sta":10722,"Keys":10723,"▁resolve":10724,"ento":10725,"inson":10726,"MO":10727,"▁alloc":10728,"alu":10729,"▁applying":10730,"Most":10731,"\"],":10732,"▁causing":10733,"emi":10734,"▁replacement":10735,"▁LED":10736,"▁reson":10737,"▁threshold":10738,"▁versions":10739,"▁conversion":10740,"▁noticed":10741,"▁Again":10742,"▁Carolina":10743,"lope":10744,"effici":10745,"icted":10746,"▁Bit":10747,"▁optical":10748,"▁Ven":10749,"▁estimates":10750,"oji":10751,"▁arrow":10752,"▁removal":10753,"margin":10754,"athan":10755,"earing":10756,"▁Auto":10757,"▁Does":10758,"uba":10759,"canvas":10760,"▁grab":10761,"uty":10762,"inas":10763,"cart":10764,"▁participate":10765,"eed":10766,"unning":10767,"vr":10768,"▁publication":10769,"▁telling":10770,"▁escape":10771,"▁eggs":10772,"Sal":10773,"▁bless":10774,"▁Francisco":10775,"esc":10776,"▁°":10777,"inite":10778,"▁momento":10779,"▁gall":10780,"▁toler":10781,"adel":10782,"▁ongoing":10783,"▁polynomial":10784,"▁equals":10785,"▁Justice":10786,"NT":10787,"▁organis":10788,"Cu":10789,"▁tard":10790,"PD":10791,"alloc":10792,"▁expenses":10793,"▁GL":10794,"▁bub":10795,"arters":10796,"▁Pur":10797,"▁simult":10798,"days":10799,"Media":10800,"▁embed":10801,"▁revers":10802,"▁Spanish":10803,"igue":10804,"nis":10805,"AMP":10806,"▁Chris":10807,"▁pac":10808,"acent":10809,"▁farmers":10810,"▁prosec":10811,"▁Change":10812,"▁uk":10813,"▁Sin":10814,"▁wra":10815,"▁cultiv":10816,"resource":10817,"▁tradition":10818,")</":10819,"▁ly":10820,"wr":10821,"ruption":10822,"▁Cro":10823,"▁rou":10824,"▁gau":10825,"▁finance":10826,"▁drivers":10827,"illy":10828,"rv":10829,"▁advis":10830,"▁Virginia":10831,"▁Mi":10832,"▁chocolate":10833,"▁delet":10834,"uru":10835,"▁sys":10836,"Opt":10837,"▁dual":10838,"▁forecast":10839,"▁reverse":10840,"▁exclusive":10841,"achment":10842,"▁Studies":10843,"▁outcome":10844,"▁Gra":10845,"cursor":10846,"diction":10847,"ders":10848,"▁narr":10849,"▁mathemat":10850,"▁asset":10851,"answer":10852,"▁alpha":10853,"UG":10854,"▁supplement":10855,"▁inflation":10856,"▁representative":10857,"cred":10858,"Orig":10859,"wt":10860,"World":10861,"Ben":10862,"▁Connect":10863,"anco":10864,"▁edges":10865,"▁cyt":10866,"▁constantly":10867,"asant":10868,"ITE":10869,"▁gard":10870,"▁Tri":10871,"▁humans":10872,"oking":10873,"hang":10874,"▁promise":10875,"pson":10876,"▁rating":10877,"rates":10878,"fon":10879,"idity":10880,"Proof":10881,"▁professionals":10882,"▁Indonesia":10883,"▁boxes":10884,"▁pron":10885,"▁explicit":10886,"▁Wi":10887,"▁concepts":10888,"KS":10889,"▁gy":10890,"inch":10891,"▁pairs":10892,"ikes":10893,"▁constructed":10894,"▁awareness":10895,"▁Ele":10896,"▁dust":10897,"ancel":10898,"▁Response":10899,"▁sick":10900,"UID":10901,"▁hook":10902,"▁Corporation":10903,"▁assembly":10904,"▁reserved":10905,"▁waters":10906,"▁atoms":10907,"fields":10908,"▁Physics":10909,"During":10910,"▁Americans":10911,"▁restrictions":10912,"Engine":10913,"▁improving":10914,"IZ":10915,"▁plain":10916,"▁substance":10917,"member":10918,"▁hypothes":10919,"▁Low":10920,"▁disput":10921,"▁Mid":10922,"▁cotton":10923,"▁alumin":10924,"ropy":10925,"▁Pers":10926,"▁determin":10927,"essa":10928,"▁roots":10929,"▁mice":10930,"▁innovative":10931,"hn":10932,"▁Ast":10933,"▁Cy":10934,"Fore":10935,"job":10936,"▁bonds":10937,"than":10938,"▁copper":10939,"▁greatly":10940,"HD":10941,"▁Hal":10942,"ulum":10943,"closed":10944,"▁temps":10945,"faction":10946,"trp":10947,"Draw":10948,"nee":10949,"▁regularly":10950,"▁Cab":10951,"▁surfaces":10952,"▁taught":10953,"▁Jeff":10954,"▁Price":10955,"▁stake":10956,"izi":10957,"▁Senate":10958,"▁worst":10959,"▁Produ":10960,"▁sept":10961,"iii":10962,"asan":10963,"inin":10964,"▁Rail":10965,"▁Queen":10966,"▁bom":10967,"▁Brazil":10968,"▁firms":10969,"▁Ve":10970,"▁concert":10971,"▁spat":10972,"▁angles":10973,"▁Philipp":10974,"▁outer":10975,"▁especial":10976,"▁vulner":10977,"PP":10978,"▁gentle":10979,"lier":10980,"irty":10981,"▁exhaust":10982,"▁induced":10983,"▁automatic":10984,"who":10985,"▁calendar":10986,"▁Ball":10987,"▁hardware":10988,"▁Station":10989,"prec":10990,"▁teeth":10991,"acia":10992,"▁IF":10993,"uka":10994,"▁vice":10995,"▁difficulty":10996,"American":10997,"▁substantial":10998,"zia":10999,"ancia":11000,"alia":11001,"ibil":11002,"▁advoc":11003,"?:":11004,"▁sharp":11005,"▁abund":11006,"▁deposit":11007,"▁aver":11008,"ogue":11009,"▁Sports":11010,"Round":11011,"utor":11012,"▁losses":11013,"▁tack":11014,"▁’":11015,"▁festival":11016,"▁cav":11017,"▁expectations":11018,"Graph":11019,"▁Dom":11020,"▁Know":11021,"▁Example":11022,"▁screens":11023,"bury":11024,"▁mang":11025,"Gen":11026,"▁sulf":11027,"▁momentum":11028,"▁mirror":11029,"NG":11030,"▁bez":11031,"imid":11032,"▁genetic":11033,"▁Joe":11034,"▁sunset":11035,"had":11036,"Under":11037,"aland":11038,"lon":11039,"riting":11040,"▁gut":11041,"OLD":11042,"▁theorem":11043,"▁serial":11044,"▁lowest":11045,"▁reset":11046,"kind":11047,"zes":11048,"▁curves":11049,"when":11050,"▁proc":11051,"▁thickness":11052,"▁tow":11053,"ppers":11054,"▁serves":11055,"▁expertise":11056,"▁Node":11057,"▁council":11058,"QUE":11059,"▁attractive":11060,"▁kas":11061,"exists":11062,"LES":11063,"clusions":11064,"▁appreciate":11065,"usal":11066,"▁ket":11067,"▁bone":11068,"Pi":11069,"olis":11070,"▁supplies":11071,"▁naturally":11072,"▁fiber":11073,"▁falling":11074,"▁SET":11075,"▁Lat":11076,"▁merely":11077,"▁contest":11078,"▁teen":11079,"Thank":11080,"▁tres":11081,"▁fal":11082,"▁encoding":11083,"may":11084,"▁instruction":11085,"▁delicious":11086,"mag":11087,"▁mud":11088,"jud":11089,"▁Natural":11090,"Es":11091,"▁challenging":11092,"country":11093,"▁AB":11094,"uing":11095,"Equal":11096,"▁tie":11097,"week":11098,"▁Asian":11099,"▁proven":11100,"▁announc":11101,"▁scheduled":11102,"acon":11103,"▁Ministry":11104,"▁instant":11105,"theme":11106,"▁smile":11107,"▁binary":11108,"▁Arts":11109,"▁correlation":11110,"▁professor":11111,"eman":11112,"eping":11113,"▁verd":11114,"engers":11115,"▁Rece":11116,"▁crop":11117,"▁spark":11118,"opes":11119,"▁equipped":11120,"Sk":11121,"▁cord":11122,"▁sessions":11123,"▁potentially":11124,"▁Charl":11125,"▁Boston":11126,"▁fantastic":11127,"rin":11128,"▁electricity":11129,"erty":11130,"▁Background":11131,"columns":11132,"▁execution":11133,"unter":11134,"▁coin":11135,"arts":11136,"▁concentrations":11137,"▁march":11138,"▁museum":11139,"▁Tok":11140,"▁Ukraine":11141,"▁instruct":11142,"ahren":11143,"▁initially":11144,"▁lett":11145,"▁gly":11146,"aug":11147,"LED":11148,"▁flexible":11149,"▁magnitude":11150,"▁enf":11151,"▁Mike":11152,"Enc":11153,"▁Agricult":11154,"▁tech":11155,"▁legs":11156,"▁flav":11157,"▁scores":11158,"wei":11159,"Ins":11160,"cook":11161,"▁statistics":11162,"▁vy":11163,"Ident":11164,"yam":11165,"redit":11166,"▁picked":11167,"ulus":11168,"▁harvest":11169,"▁versus":11170,"▁CS":11171,"▁dib":11172,"▁oscill":11173,"▁disappoint":11174,"▁programming":11175,"ivi":11176,"▁Princ":11177,"▁delight":11178,"▁Through":11179,"{\"":11180,"▁Step":11181,"▁sous":11182,"▁disturb":11183,"▁nearby":11184,"▁Ash":11185,"Selected":11186,"Once":11187,"General":11188,"IAL":11189,"Double":11190,"Author":11191,"▁lovely":11192,"▁utility":11193,"▁universal":11194,"▁clouds":11195,"arest":11196,"ocal":11197,"▁metric":11198,"fish":11199,"away":11200,"▁lens":11201,"▁strategic":11202,"ardo":11203,"stock":11204,"▁Kong":11205,"▁io":11206,"▁cul":11207,"Question":11208,"▁denied":11209,"Word":11210,"▁performing":11211,"▁realiz":11212,"HA":11213,"▁guidance":11214,"Even":11215,"ibration":11216,"▁calculation":11217,"▁targets":11218,"team":11219,"▁quote":11220,"▁revolution":11221,"▁realized":11222,"▁stations":11223,"▁−":11224,"▁ISBN":11225,"ocker":11226,"opl":11227,"▁seeds":11228,"▁gradient":11229,"▁heads":11230,"▁administrative":11231,"▁Nature":11232,"▁SC":11233,"dan":11234,"▁juris":11235,"GF":11236,"dule":11237,"▁graphic":11238,"▁constructor":11239,"▁registration":11240,"▁readers":11241,"▁sought":11242,"anza":11243,"▁sorry":11244,"▁laid":11245,"▁recipe":11246,"▁dad":11247,"▁Emp":11248,"▁stood":11249,"▁keeps":11250,"cam":11251,"▁younger":11252,"submit":11253,"▁hub":11254,"into":11255,"odos":11256,"▁appointment":11257,"▁Executive":11258,"▁mp":11259,"▁jam":11260,"▁queue":11261,"▁ticket":11262,"Adapter":11263,"ctu":11264,"rible":11265,"otor":11266,"ifs":11267,"fn":11268,"▁presents":11269,"▁slee":11270,"LY":11271,"▁providers":11272,"▁wash":11273,"▁trends":11274,"returns":11275,"▁cort":11276,"▁arrive":11277,"▁agricultural":11278,"rank":11279,"plan":11280,"▁classical":11281,"▁guest":11282,"closure":11283,"tw":11284,"ALSE":11285,"▁immun":11286,"▁Covid":11287,"▁branches":11288,"sted":11289,"▁Live":11290,"Scale":11291,"▁ml":11292,"▁kap":11293,"phones":11294,"▁Micro":11295,"depth":11296,"▁Raj":11297,"▁mechanisms":11298,"▁manip":11299,"called":11300,"cod":11301,"▁glob":11302,"▁resort":11303,"▁resulted":11304,"▁Leb":11305,"plane":11306,"▁lamp":11307,"Document":11308,"pun":11309,"▁bacteria":11310,"▁demonstrate":11311,"▁talked":11312,"▁currency":11313,"▁testim":11314,"▁vag":11315,"▁recommendations":11316,"Components":11317,"▁dere":11318,"▁Dam":11319,"▁Was":11320,"learn":11321,"plates":11322,"▁personas":11323,"▁reply":11324,"▁primer":11325,"▁Force":11326,"▁newly":11327,"▁engagement":11328,"unci":11329,"flu":11330,"▁VAL":11331,"▁bay":11332,"▁strike":11333,"Program":11334,"iest":11335,"aler":11336,"▁constraints":11337,"▁kernel":11338,"▁consequences":11339,"fun":11340,"▁losing":11341,"▁pounds":11342,"ket":11343,"raid":11344,"▁evident":11345,"▁Consult":11346,"▁span":11347,"Range":11348,"▁outcomes":11349,"▁foods":11350,"▁casual":11351,"aning":11352,"VC":11353,"Les":11354,"▁attended":11355,"xis":11356,"▁correctly":11357,"fmt":11358,".}":11359,"anç":11360,"▁jan":11361,"atoes":11362,"queue":11363,"▁displayed":11364,"prom":11365,"▁Self":11366,"▁Ja":11367,"▁admitted":11368,"▁radical":11369,"▁rising":11370,"agonal":11371,"etary":11372,"via":11373,"umm":11374,"▁rh":11375,"▁Taylor":11376,"aints":11377,"▁repeat":11378,"ummy":11379,"{{":11380,"▁directions":11381,"▁SM":11382,"worth":11383,"▁magic":11384,"▁IL":11385,"▁bedroom":11386,"uced":11387,"▁classification":11388,"bad":11389,"▁prest":11390,"▁aggreg":11391,"▁guarantee":11392,"RC":11393,"Stand":11394,"▁finds":11395,"▁Pas":11396,"▁polymer":11397,"SERT":11398,"▁recognize":11399,"▁propri":11400,"▁Did":11401,"elen":11402,"sent":11403,"arante":11404,"▁Games":11405,"▁incredible":11406,"▁pret":11407,"ILD":11408,"▁acquired":11409,"fly":11410,"quality":11411,"TIM":11412,"▁Supreme":11413,"Score":11414,"▁politics":11415,"▁stronger":11416,"▁predicted":11417,"▁accessible":11418,"▁league":11419,"▁dollar":11420,"blank":11421,"▁legend":11422,"▁Gru":11423,"▁gia":11424,"▁ll":11425,"▁tempo":11426,"▁dataset":11427,"▁worker":11428,"▁Children":11429,"orer":11430,"Op":11431,"▁Hong":11432,"▁Sav":11433,"▁Kingdom":11434,"fen":11435,"▁Guide":11436,"▁condu":11437,"▁Which":11438,"▁Machine":11439,"▁missed":11440,"▁Case":11441,"▁careful":11442,"oked":11443,"izabeth":11444,"▁completion":11445,"▁tras":11446,"▁Try":11447,"▁feat":11448,"▁tv":11449,"Matrix":11450,"issa":11451,"▁Jackson":11452,"▁ultimately":11453,"▁Server":11454,"▁SD":11455,"▁clothing":11456,"▁@@":11457,"▁footage":11458,"norm":11459,"▁retro":11460,"…………":11461,"▁gonna":11462,"Tra":11463,"▁username":11464,"▁gym":11465,"▁discrim":11466,"▁desk":11467,"▁chest":11468,"▁Constit":11469,"▁Ali":11470,"▁awesome":11471,"Focus":11472,"oly":11473,"▁BL":11474,"itals":11475,"▁puts":11476,"agne":11477,"▁elastic":11478,"▁descript":11479,"▁pays":11480,"Free":11481,"▁comprom":11482,"▁continuing":11483,"▁coordinates":11484,"Platform":11485,"▁constru":11486,"WM":11487,"▁complicated":11488,"▁dop":11489,"zing":11490,"▁stem":11491,"▁[[":11492,"aram":11493,"▁Wis":11494,"▁profes":11495,"=\"\"":11496,"igration":11497,"▁privile":11498,"specific":11499,"▁absorption":11500,"▁Korea":11501,"perature":11502,"▁drinking":11503,"▁temporary":11504,"▁bathroom":11505,"▁lighting":11506,"▁hung":11507,"agi":11508,"▁observation":11509,"Cur":11510,"▁spray":11511,"ansas":11512,"▁Chen":11513,"▁membership":11514,"▁keyboard":11515,"▁fas":11516,"▁hash":11517,"▁USB":11518,"atura":11519,"▁Never":11520,"OUT":11521,"▁participation":11522,"shire":11523,"▁hors":11524,"bank":11525,"▁Software":11526,"▁deploy":11527,"▁Boy":11528,"▁Ten":11529,"report":11530,"▁Place":11531,"▁enabled":11532,"▁arbitr":11533,"▁boot":11534,"▁trained":11535,"▁worldwide":11536,"primary":11537,"sea":11538,"chant":11539,"▁diversity":11540,"▁metabol":11541,"inois":11542,"TT":11543,"▁kes":11544,"▁Ö":11545,"good":11546,"▁Festival":11547,"▁mapping":11548,"▁campus":11549,"omatic":11550,"▁wallpaper":11551,"▁conventional":11552,"▁engage":11553,"▁Gro":11554,"▁borrow":11555,"▁conn":11556,"atro":11557,"-->":11558,"kw":11559,"entials":11560,"Pub":11561,"▁photography":11562,"▁tok":11563,"ORS":11564,"▁Mess":11565,"▁whenever":11566,"▁transparent":11567,"ppy":11568,"▁Esp":11569,"▁Pract":11570,"oids":11571,"▁breaking":11572,"VD":11573,"▁duties":11574,"connection":11575,"▁describes":11576,"▁Fair":11577,"!)":11578,"▁proposal":11579,"cule":11580,"▁Ah":11581,"▁equally":11582,"▁dik":11583,"prove":11584,"ynt":11585,"▁Olymp":11586,"Device":11587,"▁chap":11588,"▁Returns":11589,")|":11590,"Must":11591,"tox":11592,"Site":11593,"▁supervis":11594,"▁Seg":11595,"▁(-":11596,"▁Integer":11597,"cuss":11598,"▁macro":11599,"exit":11600,"▁bor":11601,"Did":11602,"ussian":11603,"Young":11604,"anne":11605,"▁scored":11606,"▁explanation":11607,"▁Band":11608,"▁feelings":11609,"▁laboratory":11610,"PATH":11611,"▁earned":11612,"▁golf":11613,"▁entreprene":11614,"▁languages":11615,"Arr":11616,"dots":11617,"▁guitar":11618,"▁Andrew":11619,"Normal":11620,"▁pla":11621,"▁decade":11622,"apsed":11623,"▁checked":11624,"ostic":11625,"hard":11626,"▁spiritual":11627,"▁luck":11628,"resol":11629,"▁finger":11630,"Will":11631,"▁debate":11632,"▁Britain":11633,"▁privacy":11634,"azi":11635,"▁underlying":11636,"Solution":11637,"amed":11638,"▁Bull":11639,"▁Unit":11640,"▁cache":11641,"▁unus":11642,"Send":11643,"▁EV":11644,"▁calculations":11645,"cribed":11646,"inking":11647,"▁SU":11648,"prote":11649,"▁holes":11650,"endor":11651,"yard":11652,"▁Northern":11653,"▁requested":11654,"parser":11655,"▁produces":11656,"▁atom":11657,"bold":11658,"▁Write":11659,"▁legislation":11660,"▁advantages":11661,"▁attorney":11662,"▁outstanding":11663,"anim":11664,"▁paragraph":11665,"▁arts":11666,"jour":11667,"▁Penn":11668,"▁sending":11669,"▁pier":11670,"▁assumption":11671,"▁deals":11672,"aneously":11673,"▁×":11674,"▁gast":11675,"▁routine":11676,"cmd":11677,"construct":11678,"asil":11679,"▁coat":11680,"▁trim":11681,"isting":11682,"▁crowd":11683,"▁irre":11684,"ORY":11685,"▁loans":11686,"GS":11687,"▁aer":11688,"driver":11689,"▁Berlin":11690,"▁corn":11691,"▁suspect":11692,"initial":11693,"▁conce":11694,"▁ii":11695,"atie":11696,"▁Brook":11697,"icion":11698,"▁guidelines":11699,"rient":11700,"▁injuries":11701,"▁Maybe":11702,"▁Harr":11703,"▁Dou":11704,"▁gallery":11705,"aye":11706,"Et":11707,"▁dipl":11708,"▁smartphone":11709,"▁dice":11710,"▁Quest":11711,"▁conse":11712,"▁intens":11713,"▁Ped":11714,"short":11715,"zu":11716,"▁bull":11717,"▁managing":11718,"▁Ban":11719,"▁surprised":11720,"archive":11721,"onder":11722,"▁streets":11723,"omo":11724,"izon":11725,"▁Smart":11726,"▁tone":11727,"aser":11728,"▁observe":11729,"Schema":11730,"▁yields":11731,"▁webs":11732,"▁expanded":11733,"▁increasingly":11734,"▁Plant":11735,"▁savings":11736,"▁athlet":11737,"▁Student":11738,"▁tf":11739,"▁magnet":11740,"emony":11741,"Cr":11742,"Report":11743,"theless":11744,"▁Jersey":11745,"fetch":11746,"▁stain":11747,"▁portfolio":11748,"cers":11749,"▁Sho":11750,"▁bak":11751,"▁nost":11752,"▁clim":11753,"▁fifth":11754,"▁identical":11755,"orient":11756,"angers":11757,"▁Michigan":11758,"▁SER":11759,"▁Vo":11760,"▁occas":11761,"▁Lew":11762,"▁furniture":11763,"lications":11764,"▁fraud":11765,"inta":11766,"Sa":11767,"unge":11768,"amilton":11769,"▁Kit":11770,"▁Aqu":11771,"▁loaded":11772,"▁hu":11773,"▁arc":11774,"Radi":11775,"▁consec":11776,"▁luxury":11777,"▁trace":11778,"collection":11779,"iah":11780,"▁Imp":11781,"Template":11782,"▁availability":11783,"▁religion":11784,"▁ram":11785,"comput":11786,"ikt":11787,"▁Sher":11788,"inery":11789,"ctic":11790,"▁communications":11791,"▁coefficients":11792,"arna":11793,"LS":11794,"▁yards":11795,"▁explo":11796,"before":11797,"▁SA":11798,"▁lists":11799,"Editor":11800,"▁capabilities":11801,"tery":11802,"▁debug":11803,"▁Quant":11804,"redu":11805,"clock":11806,"▁RES":11807,"▁Sat":11808,"▁Address":11809,"▁diagnosis":11810,"thor":11811,"wind":11812,"▁compensation":11813,"heit":11814,"question":11815,"▁believes":11816,"▁diabetes":11817,"▁diamond":11818,".(":11819,"▁hood":11820,"▁southern":11821,"ichen":11822,"ivel":11823,"▁Night":11824,"services":11825,"▁biological":11826,"piece":11827,"▁stroke":11828,"▁carrier":11829,"▁Grow":11830,"zip":11831,"▁infer":11832,"▁Bat":11833,"▁Oil":11834,"▁explos":11835,"▁lifestyle":11836,"▁offices":11837,"▁separated":11838,"▁cs":11839,"▁resp":11840,"eric":11841,"ea":11842,"properties":11843,"abi":11844,"▁cursor":11845,"▁lady":11846,"▁intention":11847,"▁vig":11848,"develop":11849,"Conf":11850,"Fin":11851,"▁meters":11852,"▁kay":11853,"▁ME":11854,"▁Dur":11855,"▁variations":11856,"▁suddenly":11857,"Who":11858,"▁substr":11859,"ows":11860,"▁respective":11861,"uar":11862,"▁Bob":11863,"▁suffering":11864,"▁explains":11865,"▁sar":11866,"iale":11867,"Beautiful":11868,"Lin":11869,"NOT":11870,"▁improvements":11871,"▁Stan":11872,"▁digit":11873,"▁cod":11874,"▁Song":11875,"▁liver":11876,"▁immune":11877,"▁SQL":11878,"▁shapes":11879,"dl":11880,"▁surve":11881,"▁Sport":11882,"▁qualified":11883,"▁resc":11884,"▁likes":11885,"atha":11886,"▁impressive":11887,"required":11888,"prod":11889,"▁illness":11890,"▁Han":11891,"ulin":11892,"▁kol":11893,"His":11894,"labels":11895,"making":11896,"▁Download":11897,"▁avant":11898,"rock":11899,"▁Cru":11900,"▁Assembly":11901,"▁Neg":11902,"▁summar":11903,"logger":11904,"Operation":11905,"▁dependence":11906,"MIN":11907,"▁nag":11908,"▁examined":11909,"▁saving":11910,"sky":11911,"NH":11912,"▁nad":11913,"ributed":11914,"▁Whether":11915,"rup":11916,"alert":11917,"gray":11918,"▁accompan":11919,"▁parser":11920,"▁phenomen":11921,"▁eg":11922,"▁upcoming":11923,"▁ALL":11924,"Collections":11925,"▁usu":11926,"feed":11927,"▁boss":11928,"▁purple":11929,"▁airport":11930,"bie":11931,"▁ignore":11932,"▁XX":11933,"ennes":11934,"▁debut":11935,"▁cmd":11936,"▁joining":11937,"▁Pharm":11938,"▁vegetables":11939,"▁migration":11940,"▁Tal":11941,"Dig":11942,"▁FI":11943,"BM":11944,"▁falls":11945,"▁tracking":11946,"ilet":11947,"▁brush":11948,"woman":11949,"▁OS":11950,"quire":11951,"▁dining":11952,"▁geometric":11953,"▁premier":11954,"▁Building":11955,"▁magazine":11956,"▁Member":11957,"xiety":11958,"legate":11959,"▁smiling":11960,"ologist":11961,"Sn":11962,"rag":11963,"ighth":11964,"ologie":11965,"▁Ford":11966,"▁kep":11967,"▁healthcare":11968,"▁Au":11969,"▁oz":11970,"▁Block":11971,"▁adequate":11972,"scroll":11973,"▁vertex":11974,"▁prohib":11975,"▁identification":11976,"▁OK":11977,"istence":11978,"▁Prop":11979,"anas":11980,"hide":11981,"▁apparently":11982,"▁glad":11983,"▁ali":11984,"▁colored":11985,"▁→":11986,"▁hurt":11987,"will":11988,"bec":11989,"ishment":11990,"wich":11991,"▁AUT":11992,"pton":11993,"▁dich":11994,"iking":11995,"direction":11996,"History":11997,"Sync":11998,"▁\".":11999,"marks":12000,"▁Euro":12001,"▁transferred":12002,"▁FA":12003,"▁prospect":12004,"▁Ide":12005,"▁exclus":12006,"FS":12007,"oured":12008,"▁HTML":12009,"▁WH":12010,"Pal":12011,"mad":12012,"ortion":12013,"▁Fall":12014,"▁quadr":12015,"nan":12016,"ovi":12017,"▁Nut":12018,"▁``":12019,"▁dynamics":12020,"▁lesson":12021,"▁COMP":12022,"▁Officer":12023,"▁Final":12024,"ilst":12025,"▁Parliament":12026,"▁Double":12027,"▁alongside":12028,"▁investigated":12029,"igne":12030,"▁declared":12031,"▁bonus":12032,"arten":12033,"▁cooling":12034,"▁Sciences":12035,"▁Nigeria":12036,"flag":12037,"▁Cloud":12038,"▁hybrid":12039,"▁Tele":12040,"RNA":12041,"▁courts":12042,"should":12043,"▁scientists":12044,"▁bags":12045,"▁entries":12046,"▁returning":12047,"Detail":12048,"kk":12049,"▁entering":12050,"▁Sales":12051,"feature":12052,"▁contemporary":12053,"▁hide":12054,"▁hip":12055,"wy":12056,"umeric":12057,"CREATE":12058,"ANS":12059,"▁Copyright":12060,"Match":12061,"Py":12062,"TYPE":12063,"▁institution":12064,"▁moon":12065,"prob":12066,"▁arrival":12067,"▁copies":12068,"▁pygame":12069,"▁seriously":12070,"ifferent":12071,"▁routes":12072,"▁visiting":12073,"▁symbols":12074,"orie":12075,"▁autumn":12076,"umen":12077,"▁decent":12078,"ials":12079,"sun":12080,"flash":12081,"▁gross":12082,"inden":12083,")\"":12084,"isu":12085,"▁ray":12086,"emo":12087,"Cap":12088,"ancement":12089,"▁labour":12090,"apply":12091,"▁promin":12092,"scene":12093,"ught":12094,"▁filename":12095,"▁limitations":12096,"▁Prem":12097,"▁amplit":12098,"▁ef":12099,"▁founded":12100,"Interval":12101,"▁twe":12102,"izable":12103,"▁Girl":12104,"▁!!":12105,"▁robust":12106,"odge":12107,"▁studying":12108,"▁Ko":12109,"roc":12110,"osi":12111,"▁assistant":12112,"▁checking":12113,"▁demands":12114,"▁compute":12115,"erca":12116,"▁Rub":12117,"Results":12118,"bean":12119,"▁Cert":12120,"issance":12121,"▁fiscal":12122,"▁oral":12123,"▁passes":12124,"market":12125,"▁Rd":12126,"▁Moh":12127,"cases":12128,"▁nod":12129,"▁recall":12130,"phy":12131,"▁entertainment":12132,"▁determining":12133,"▁tract":12134,"spe":12135,"burgh":12136,"elih":12137,"itzer":12138,"▁emission":12139,"Animation":12140,"▁insect":12141,"▁roads":12142,"aft":12143,"▁contracts":12144,"olid":12145,"▁McC":12146,"attice":12147,"▁coinc":12148,"▁tablet":12149,"▁tiny":12150,"▁Bell":12151,"▁printing":12152,"idel":12153,"▁Bra":12154,"▁fruits":12155,"▁walked":12156,"wal":12157,"andid":12158,"▁heading":12159,"Support":12160,"▁Label":12161,"▁Rose":12162,"▁Latin":12163,"▁Inf":12164,"▁designer":12165,"▁abuse":12166,"Center":12167,"cycl":12168,"▁'.":12169,"▁paths":12170,"isons":12171,"▁dismiss":12172,"diff":12173,"▁nic":12174,"▁coordinate":12175,"▁western":12176,"▁quot":12177,"exam":12178,"▁canal":12179,"Year":12180,"▁rust":12181,"▁protocol":12182,"▁MAR":12183,"▁struggle":12184,"▁Tax":12185,"▁references":12186,"icher":12187,"esi":12188,"▁locally":12189,"▁Sab":12190,"UES":12191,"▁retrie":12192,"▁denote":12193,"▁Electric":12194,"▁christmas":12195,"Mus":12196,"▁IR":12197,"▁embr":12198,"fü":12199,"▁acet":12200,"▁decreased":12201,"inte":12202,"▁Greek":12203,"▁Pour":12204,"▁Gh":12205,"▁Abstract":12206,"▁artificial":12207,"▁tons":12208,"calcul":12209,"▁Mic":12210,"▁morph":12211,"mouse":12212,"▁breast":12213,"▁elected":12214,"Custom":12215,"▁Kal":12216,"▁simulation":12217,"enders":12218,"▁Request":12219,"▁Watch":12220,"▁Transport":12221,"▁Kent":12222,"reb":12223,"▁physics":12224,"los":12225,"▁ere":12226,"▁sauce":12227,"itudes":12228,"▁controvers":12229,"irs":12230,"▁Ult":12231,"features":12232,"Blue":12233,"▁Golden":12234,"▁Portug":12235,"▁Dies":12236,"▁bab":12237,"▁Ju":12238,"▁satisfy":12239,"▁Irish":12240,"▁gained":12241,"▁Abs":12242,"▁coronavirus":12243,"ashed":12244,"Temp":12245,"oming":12246,"clar":12247,"▁centers":12248,"docs":12249,"ividual":12250,"▁ending":12251,"xa":12252,"▁aside":12253,"▁PDF":12254,"▁discharge":12255,"Pointer":12256,"▁Fa":12257,"pow":12258,"▁Radio":12259,"▁tort":12260,"itet":12261,"▁trick":12262,"▁Bru":12263,"▁recom":12264,"▁bands":12265,"▁Hop":12266,"▁Level":12267,"ilty":12268,"▁dy":12269,"▁somewhere":12270,"jon":12271,"osta":12272,"▁Pakistan":12273,"▁Bor":12274,"▁FL":12275,"▁strings":12276,"▁Ay":12277,"▁matching":12278,"▁talks":12279,"▁packaging":12280,"▁enhanced":12281,"▁separation":12282,"▁trem":12283,"middle":12284,"▁surprising":12285,"health":12286,"including":12287,"oko":12288,"▁alarm":12289,"▁ages":12290,"usters":12291,"pare":12292,"▁lands":12293,"▁scenario":12294,"▁vectors":12295,"asis":12296,"▁tags":12297,"▁Beautiful":12298,"▁objectives":12299,"uren":12300,"▁jacket":12301,"▁passage":12302,"▁Bus":12303,"▁tension":12304,"▁bold":12305,"▁reven":12306,"ieu":12307,"▁pulled":12308,"▁composed":12309,"▁ions":12310,"▁lub":12311,"▁moral":12312,")):":12313,"▁blur":12314,"▁speaker":12315,"▁Small":12316,"sys":12317,"YS":12318,"Welcome":12319,"fc":12320,"▁datetime":12321,"curs":12322,"▁yard":12323,"bled":12324,"aju":12325,"▁Safety":12326,"ril":12327,"iversary":12328,"▁lymph":12329,"GEN":12330,"▁orang":12331,"▁neuro":12332,"▁decline":12333,"▁survival":12334,"▁conservation":12335,"▁syst":12336,"▁tickets":12337,"quot":12338,"Profile":12339,"▁calm":12340,"▁suppose":12341,"▁plates":12342,"▁rit":12343,"▁horm":12344,"▁numerical":12345,"▁broke":12346,"▁cock":12347,"ellar":12348,"▁pointer":12349,"▁suffered":12350,"▁Editor":12351,"nm":12352,"▁Iran":12353,"kon":12354,"▁batt":12355,"▁Very":12356,"Seg":12357,"▁tracks":12358,"ailing":12359,"▁Component":12360,"ogs":12361,"▁painted":12362,"Definition":12363,"progress":12364,"aud":12365,"Cache":12366,"▁rubber":12367,"▁ey":12368,"ANCE":12369,"Writer":12370,":-":12371,"Cent":12372,"ICAL":12373,"Speed":12374,"▁cogn":12375,"▁Ki":12376,"▁hits":12377,"PN":12378,"ixel":12379,"gre":12380,"▁spots":12381,"▁bou":12382,"▁Content":12383,"regular":12384,"rov":12385,"▁wound":12386,"pair":12387,"apore":12388,"▁Guard":12389,"▁deter":12390,"▁knock":12391,"owned":12392,"▁electrons":12393,"ented":12394,"▁wis":12395,"▁Jos":12396,"▁Products":12397,"ää":12398,"Super":12399,"cus":12400,"socket":12401,"▁robot":12402,"▁Wilson":12403,"▁MD":12404,"▁arrested":12405,"▁complexity":12406,"▁giant":12407,"▁Study":12408,"▁instances":12409,"▁transactions":12410,"▁weekly":12411,"▁prima":12412,"▁Phot":12413,"Layer":12414,"▁Broad":12415,"idal":12416,"▁Computer":12417,"eln":12418,"▁Medicine":12419,"▁verify":12420,"PAR":12421,"▁pose":12422,"▁managers":12423,"▁Version":12424,"▁byte":12425,"▁theoretical":12426,"▁straw":12427,"▁attitude":12428,"▁applies":12429,"▁swimming":12430,"▁certificate":12431,"▁Bah":12432,"▁interpretation":12433,"▁entrance":12434,"ockey":12435,"▁vaccine":12436,"scr":12437,"imen":12438,"||":12439,"▁Lag":12440,"ipedia":12441,"onymous":12442,"aik":12443,"isan":12444,"▁zo":12445,"▁cust":12446,"para":12447,"▁suite":12448,"▁Paper":12449,"▁rendering":12450,"elled":12451,"ossa":12452,"▁portrait":12453,"▁reflection":12454,"nak":12455,"▁heter":12456,"▁GO":12457,"▁lev":12458,"Package":12459,"▁MAT":12460,"▁Univ":12461,"sed":12462,"▁nay":12463,"▁Economic":12464,"UND":12465,"WR":12466,"▁vessel":12467,"▁mile":12468,"oving":12469,"Job":12470,"▁mart":12471,"▁remind":12472,"▁Output":12473,"radio":12474,"▁choosing":12475,"mak":12476,"▁buttons":12477,"Counter":12478,"being":12479,"▁mah":12480,"Her":12481,"]).":12482,"modal":12483,"Only":12484,"Generic":12485,"▁Financial":12486,"▁numpy":12487,"▁personally":12488,"▁Viet":12489,"roit":12490,"▁reveal":12491,"▁Nuclear":12492,"rice":12493,"emente":12494,"▁tomorrow":12495,"▁gang":12496,"blo":12497,"lace":12498,"peg":12499,"▁Capital":12500,"▁lbs":12501,"▁steady":12502,"▁colleagues":12503,"▁measuring":12504,"prov":12505,"▁afraid":12506,"▁featured":12507,"▁gam":12508,"▁alive":12509,"▁smoke":12510,"▁Administration":12511,"▁converted":12512,"▁rival":12513,"▁vacuum":12514,"▁refresh":12515,"▁Ky":12516,"▁Load":12517,"▁equity":12518,"▁Yet":12519,"▁northern":12520,"▁guarante":12521,"iously":12522,"▁evil":12523,"Bean":12524,"▁hosp":12525,"▁diffusion":12526,"▁circular":12527,"▁attempts":12528,"etti":12529,"heast":12530,"▁fragment":12531,"▁Story":12532,"▁maintaining":12533,"Admin":12534,"▁modes":12535,"▁spectra":12536,"bing":12537,"▁shower":12538,"▁newspaper":12539,"▁amino":12540,"▁Sant":12541,"detail":12542,"▁bomb":12543,"Ps":12544,"tk":12545,"▁Gas":12546,"▁closing":12547,"oka":12548,"▁quart":12549,"help":12550,".\")":12551,"choice":12552,"▁RO":12553,"ghan":12554,"stud":12555,"▁genu":12556,"▁populations":12557,"▁Maria":12558,"▁Close":12559,"slash":12560,"▁addressed":12561,"▁salary":12562,"▁ED":12563,"bc":12564,"elihood":12565,"▁ultimate":12566,"lectual":12567,"▁Buff":12568,"Appearance":12569,"alis":12570,"cribe":12571,"Models":12572,"▁bulk":12573,"▁Nations":12574,"▁navigation":12575,"Best":12576,"▁chronic":12577,"▁prediction":12578,"▁sequences":12579,"▁arrangement":12580,"oline":12581,"▁regime":12582,":(":12583,"▁icons":12584,"Bet":12585,"irable":12586,"classes":12587,"▁vest":12588,"Cond":12589,"▁Hu":12590,"▁Player":12591,"uki":12592,"▁Oxford":12593,"▁Film":12594,"Trace":12595,"▁decom":12596,"}\")":12597,"▁affordable":12598,"Today":12599,"▁Rog":12600,"▁Integr":12601,"▁Treat":12602,"▁namespace":12603,"COM":12604,"anted":12605,"▁climb":12606,"enne":12607,"▁Item":12608,"▁Georgia":12609,"▁χ":12610,"uct":12611,"Coll":12612,"▁ensuring":12613,"▁copyright":12614,"Hint":12615,"▁Jean":12616,"doors":12617,"hex":12618,"?)":12619,"▁weapons":12620,"▁historic":12621,"▁podcast":12622,"▁modify":12623,"Weight":12624,"▁hex":12625,"Raw":12626,"Using":12627,"▁caps":12628,"atile":12629,"▁opposition":12630,"emat":12631,"▁pleasure":12632,"books":12633,"▁everywhere":12634,"▁pleased":12635,"each":12636,"▁Sym":12637,"created":12638,"▁θ":12639,"Database":12640,"▁significance":12641,"▁Future":12642,"bm":12643,"▁injured":12644,"▁sees":12645,"▁Buy":12646,"▁reaching":12647,"▁Widget":12648,"▁invited":12649,"▁celebrate":12650,"Buf":12651,"COL":12652,"▁strange":12653,"▁lying":12654,"▁orth":12655,"prev":12656,"▁productivity":12657,"aban":12658,"▁Travel":12659,"expl":12660,"▁faced":12661,"▁Fern":12662,"asser":12663,"distance":12664,"FE":12665,"works":12666,"▁tape":12667,"▁orientation":12668,"▁cui":12669,"program":12670,"configuration":12671,"▁Elizabeth":12672,"imental":12673,"▁Mathemat":12674,"anny":12675,"▁regardless":12676,"▁lung":12677,"▁shoulder":12678,"▁Kam":12679,"bors":12680,"▁characterized":12681,"▁lessons":12682,"▁Tu":12683,"▁victim":12684,"▁neur":12685,"cosystem":12686,"▁bun":12687,"Tim":12688,"▁mak":12689,"▁Catholic":12690,"▁Agency":12691,"▁drops":12692,"Rad":12693,"Green":12694,"owie":12695,"▁Ti":12696,"▁valve":12697,"▁refers":12698,"▁MO":12699,"▁Config":12700,"▁bytes":12701,"▁Import":12702,"izations":12703,"▁rocks":12704,"mys":12705,"▁Description":12706,"▁broadcast":12707,"avid":12708,"▁Eth":12709,"▁codes":12710,"▁Thailand":12711,"▁Appro":12712,"▁metals":12713,"▁acquisition":12714,"▁Front":12715,"▁Has":12716,"▁enorm":12717,"▁combat":12718,"▁Training":12719,"oust":12720,"▁dissol":12721,"▁aims":12722,"ENS":12723,"▁possession":12724,"Socket":12725,"▁Miller":12726,"stre":12727,"▁pant":12728,"▁mood":12729,"jas":12730,"▁graphics":12731,"▁Priv":12732,"▁regulatory":12733,"HL":12734,"▁glasses":12735,"_.":12736,"▁wo":12737,"Host":12738,"▁logger":12739,"gru":12740,"bits":12741,"▁behalf":12742,"complete":12743,"prises":12744,"▁convey":12745,"▁Title":12746,"Dist":12747,"lyn":12748,"▁nin":12749,"ATED":12750,"▁examine":12751,"▁shops":12752,"▁bere":12753,"▁discovery":12754,"indo":12755,"▁reprodu":12756,"nos":12757,"▁bunch":12758,"▁Pri":12759,"atti":12760,"▁manufacturers":12761,"modules":12762,"▁casino":12763,"profit":12764,"▁thereof":12765,"▁WHERE":12766,"Stop":12767,"kor":12768,"ycle":12769,"▁overl":12770,"▁configur":12771,"▁Core":12772,"▁Op":12773,"▁initiative":12774,"▁ER":12775,"Der":12776,"▁append":12777,"original":12778,"▁Marg":12779,"HR":12780,"▁preparing":12781,"obi":12782,"▁rol":12783,"▁oppon":12784,"▁awarded":12785,"orable":12786,"▁Sud":12787,"Water":12788,"▁belt":12789,"▁investigate":12790,"▁accused":12791,"▁fung":12792,"Design":12793,"avelength":12794,"▁problema":12795,"▁derivative":12796,"▁banner":12797,"▁invention":12798,"riction":12799,"eness":12800,"▁Cart":12801,"rus":12802,"lined":12803,"rig":12804,"▁relating":12805,"tar":12806,"▁Pod":12807,"▁TE":12808,"▁Menu":12809,"jections":12810,"through":12811,"bil":12812,"ICK":12813,"▁Customer":12814,"inction":12815,"bras":12816,"▁emissions":12817,"▁Sov":12818,"▁residential":12819,"Bal":12820,"quiry":12821,"▁fing":12822,"echo":12823,"▁synd":12824,"acet":12825,"rh":12826,"conv":12827,"▁investments":12828,"▁crazy":12829,"▁Avenue":12830,"Amount":12831,"OME":12832,"ifting":12833,"▁Article":12834,"▁Collection":12835,"tech":12836,"▁Lemma":12837,"▁suffer":12838,"▁analyzed":12839,"▁conclude":12840,"▁bias":12841,"▁overw":12842,"udes":12843,"eu":12844,"▁Mosc":12845,"▁Sky":12846,"▁packages":12847,"▁tumor":12848,"quin":12849,"▁respir":12850,"▁BR":12851,"▁inject":12852,"▁anyway":12853,"▁mining":12854,"▁hearts":12855,"▁dys":12856,";\">":12857,"▁subset":12858,"▁forever":12859,"▁graduate":12860,"▁checks":12861,"GI":12862,"▁Norm":12863,"▁sensitivity":12864,"apper":12865,"▁varied":12866,"▁EL":12867,"Enabled":12868,"▁consisting":12869,"▁tooth":12870,"▁Airport":12871,"▁pak":12872,"Hey":12873,"adesh":12874,"▁thereby":12875,"▁invari":12876,"▁sir":12877,"▁cooperation":12878,"▁decay":12879,"▁stuck":12880,"course":12881,"testing":12882,"encer":12883,"aden":12884,"▁Font":12885,"▁viv":12886,"▁hate":12887,"gang":12888,"▁operated":12889,"▁rug":12890,"▁bron":12891,"Win":12892,"▁Zealand":12893,"▁conscious":12894,"▁Hamilton":12895,"argument":12896,"▁approximation":12897,"▁brick":12898,"Because":12899,"▁Feder":12900,"TI":12901,"▁generator":12902,"gather":12903,"▁mog":12904,"stage":12905,"▁Mountain":12906,"▁pole":12907,"▁mold":12908,"▁treatments":12909,"lings":12910,"▁aliment":12911,"▁Scient":12912,"▁frequent":12913,"owntown":12914,"Face":12915,"▁lon":12916,"yon":12917,"▁Context":12918,"▁Championship":12919,"▁Keep":12920,"▁cartoon":12921,"Pad":12922,"▁inspection":12923,"auer":12924,"vid":12925,"▁Fox":12926,"apy":12927,"jer":12928,"▁ceremony":12929,"▁Rot":12930,"Li":12931,"food":12932,"▁gluc":12933,"▁Ni":12934,"▁Chap":12935,"▁enables":12936,"shift":12937,"▁Rights":12938,"wear":12939,"▁sunny":12940,"hist":12941,"Mer":12942,"▁vacation":12943,"apple":12944,"Space":12945,"airy":12946,"Intern":12947,"subseteq":12948,"▁Results":12949,"▁Trade":12950,"▁wing":12951,"▁ub":12952,"▁hes":12953,"▁modal":12954,"▁reputation":12955,"▁anxiety":12956,"▁integrity":12957,"anded":12958,"▁apl":12959,"Final":12960,"▁grounds":12961,"▁corresponds":12962,"ricts":12963,"▁beta":12964,"▁indicating":12965,"▁Gard":12966,"equal":12967,"▁jus":12968,"▁Mol":12969,"▁satisfaction":12970,"▁Fab":12971,"▁solub":12972,"▁supplied":12973,"▁cookie":12974,"▁angular":12975,"▁Source":12976,"▁AG":12977,"▁Country":12978,"▁pend":12979,"▁Prin":12980,"▁Register":12981,"City":12982,"▁SL":12983,"elfare":12984,"whe":12985,"Transaction":12986,"▁reduces":12987,"▁Muslim":12988,"▁placeholder":12989,"mol":12990,"▁doctors":12991,"▁succ":12992,"▁Drive":12993,"▁Command":12994,"Visibility":12995,"gate":12996,"▁literally":12997,"▁pace":12998,"ISS":12999,"▁Ges":13000,"▁commands":13001,"Like":13002,"▁communicate":13003,"jump":13004,"▁Express":13005,"▁vessels":13006,"▁soph":13007,"uce":13008,"ikk":13009,"▁dens":13010,"▁analog":13011,"orous":13012,"shared":13013,"▁instruments":13014,"▁universe":13015,"dataset":13016,"nah":13017,"▁flows":13018,"▁concluded":13019,"▁captured":13020,"ERE":13021,"onde":13022,"chlor":13023,"▁©":13024,"owner":13025,"▁horses":13026,"▁bene":13027,"▁Given":13028,"sex":13029,"▁quantities":13030,"have":13031,"stan":13032,"▁GR":13033,"▁trials":13034,"▁earnings":13035,"▁hell":13036,"▁Harry":13037,"record":13038,"▁Eastern":13039,"▁eligible":13040,"▁combine":13041,"▁tropical":13042,"chos":13043,"▁favourite":13044,"nea":13045,"/\\":13046,"▁Od":13047,"▁apple":13048,"▁mineral":13049,"arte":13050,"iate":13051,"Unity":13052,"anan":13053,"▁seats":13054,"phia":13055,"UK":13056,"▁Pow":13057,"Civ":13058,"Ca":13059,"▁aur":13060,"▁nations":13061,"▁achie":13062,"Board":13063,"▁bass":13064,"Business":13065,"▁Jam":13066,"limit":13067,"▁consequence":13068,"▁precip":13069,"▁upp":13070,"▁Illinois":13071,"▁triangle":13072,"▁affili":13073,"▁Python":13074,"folder":13075,"▁alc":13076,"spir":13077,"▁agriculture":13078,"▁spatial":13079,"▁wider":13080,"▁translate":13081,"▁rings":13082,"approx":13083,"▁fract":13084,"products":13085,"▁appar":13086,"▁everyday":13087,"balance":13088,"strip":13089,"▁Leon":13090,"rons":13091,"▁Sep":13092,"▁governments":13093,"▁Age":13094,"cord":13095,"ytic":13096,"such":13097,"▁sodium":13098,"cium":13099,"▁prog":13100,"▁anterior":13101,"ondo":13102,"▁solving":13103,"▁acknowled":13104,"▁Ale":13105,"▁Singh":13106,"heim":13107,"▁websites":13108,"hydro":13109,"▁elections":13110,"▁meth":13111,"rett":13112,"▁tact":13113,"▁slope":13114,"▁neglig":13115,"▁substances":13116,"▁juice":13117,"▁algorithms":13118,"▁builder":13119,",,":13120,"▁operational":13121,"▁partition":13122,"▁Bridge":13123,"▁hanging":13124,"▁Kap":13125,"links":13126,"▁obl":13127,"▁tutorial":13128,"GER":13129,"▁Nd":13130,"sulf":13131,"]\\":13132,"vars":13133,"acles":13134,"CG":13135,"tf":13136,"Alert":13137,"▁LO":13138,"▁spokes":13139,"atos":13140,"umar":13141,"uela":13142,"fections":13143,"▁VAR":13144,"▁hill":13145,"▁employer":13146,"icide":13147,"▁guilty":13148,"anga":13149,"wen":13150,"▁auth":13151,"▁Graph":13152,"▁Simple":13153,"quo":13154,"FILE":13155,"▁Bible":13156,"BP":13157,"▁β":13158,"your":13159,"▁Element":13160,"Air":13161,"▁depression":13162,"inton":13163,"▁Ident":13164,"▁aest":13165,"sheet":13166,"▁tournament":13167,"▁dial":13168,"▁reactor":13169,"▁inspiration":13170,"encode":13171,"yled":13172,"▁Among":13173,"writer":13174,"▁territory":13175,"omi":13176,"▁connecting":13177,"▁analyses":13178,"▁AF":13179,"ppe":13180,"doi":13181,"Drop":13182,"omal":13183,"rous":13184,"▁pixels":13185,"inv":13186,"avi":13187,"USA":13188,"▁rely":13189,"▁Tree":13190,"fre":13191,"▁seasons":13192,"Has":13193,"▁Pi":13194,"ebook":13195,"▁diese":13196,"adelphia":13197,"burn":13198,"▁Hash":13199,"▁sched":13200,"▁bits":13201,"cks":13202,"Bytes":13203,"▁Bed":13204,"Hist":13205,"anth":13206,"▁Pok":13207,"▁nutrition":13208,"▁intersection":13209,"Prop":13210,"hero":13211,"▁Fle":13212,"▁faculty":13213,"▁burden":13214,"filled":13215,"▁damaged":13216,"Success":13217,"Global":13218,"Download":13219,"▁optimization":13220,"▁Und":13221,"▁statistical":13222,"▁Clark":13223,"▁approx":13224,"▁scroll":13225,"▁acres":13226,"ships":13227,"▁meta":13228,"▁shr":13229,"▁cere":13230,"▁pup":13231,"]),":13232,"cycle":13233,"Je":13234,"emen":13235,"MF":13236,"gmail":13237,"lit":13238,"ulpt":13239,"▁hasn":13240,"▁Room":13241,"flat":13242,"▁champion":13243,"shirt":13244,"▁aged":13245,"Jan":13246,"▁marker":13247,"▁Job":13248,"▁accomp":13249,"▁crown":13250,"anyl":13251,"▁stom":13252,"▁oc":13253,"▁Indeed":13254,"▁enforcement":13255,"bird":13256,"▁liked":13257,"bst":13258,"▁withdraw":13259,"special":13260,"conn":13261,"▁reserve":13262,"▁Psych":13263,"▁Europ":13264,"▁traveling":13265,"▁drama":13266,"▁loy":13267,"▁Protection":13268,"ogeneous":13269,"▁Promise":13270,"Pres":13271,"▁outline":13272,"Doc":13273,"▁physi":13274,"requency":13275,"▁complaint":13276,"~~":13277,"▁squad":13278,"▁gifts":13279,"▁loves":13280,"▁Concept":13281,"▁overcome":13282,"shadow":13283,"Serial":13284,"▁Based":13285,"▁soldiers":13286,"▁Theory":13287,"prof":13288,"▁chances":13289,"▁adjacent":13290,"▁floral":13291,"▁Liter":13292,"▁Governor":13293,"Pref":13294,"toxicity":13295,"atiti":13296,"plicate":13297,"▁preview":13298,"acco":13299,"▁enjoying":13300,"dw":13301,"cluding":13302,"▁surrounded":13303,"▁evaluated":13304,"▁promotion":13305,"perti":13306,"▁nun":13307,"fers":13308,"ayo":13309,"tools":13310,"bytes":13311,"percent":13312,"▁floating":13313,"▁flood":13314,"▁Cambridge":13315,"▁calc":13316,"allas":13317,"▁Aud":13318,"Bu":13319,"▁SS":13320,"▁personality":13321,"▁Resources":13322,"▁Adam":13323,"▁inventory":13324,"▁Daily":13325,"▁Sever":13326,"▁Davis":13327,"▁nome":13328,"ponential":13329,"ibe":13330,"▁confront":13331,"ateful":13332,"▁validation":13333,"addr":13334,"▁wake":13335,"▁Spirit":13336,"▁blind":13337,"▁Thom":13338,"Stud":13339,"▁immer":13340,"▁Hart":13341,"▁Property":13342,"▁developers":13343,"▁geometry":13344,"▁Audio":13345,"▁tant":13346,"▁intermediate":13347,"▁Catal":13348,"ologia":13349,"mont":13350,"ONG":13351,"▁ante":13352,"overty":13353,"▁namely":13354,"aped":13355,"▁sq":13356,"cert":13357,"▁inequality":13358,"▁grat":13359,"neys":13360,"▁Scotland":13361,"▁stocks":13362,"osto":13363,"▁infinite":13364,"▁Jordan":13365,"▁Cou":13366,"▁perf":13367,"history":13368,"▁FR":13369,"Power":13370,"▁enterprise":13371,"Sun":13372,"▁Mand":13373,"tip":13374,"▁Tai":13375,"▁accompanied":13376,"▁Wind":13377,"Driver":13378,"▁Available":13379,"▁assignment":13380,"▁Va":13381,"trim":13382,"Arch":13383,"▁decoration":13384,"uits":13385,"▁pilot":13386,"▁Hou":13387,"▁Square":13388,"changed":13389,"angel":13390,"▁HR":13391,"hend":13392,"▁hint":13393,"▁permitted":13394,"sters":13395,"▁Motor":13396,"▁jou":13397,"▁Brand":13398,"▁genre":13399,"▁cet":13400,"▁impression":13401,"▁Rule":13402,"▁Grande":13403,"▁folks":13404,"▁engines":13405,"▁Bot":13406,"▁Status":13407,"▁reflected":13408,"ilen":13409,"▁Anth":13410,"People":13411,"Team":13412,"Texture":13413,"▁Argent":13414,"fact":13415,"▁bounded":13416,"▁gradually":13417,"release":13418,"itel":13419,"▁zoom":13420,"Transform":13421,"arry":13422,"▁Delhi":13423,"▁awards":13424,"emed":13425,"▁diver":13426,"▁Message":13427,"▁destroyed":13428,"Basic":13429,"anche":13430,"▁Wars":13431,"▁franch":13432,"▁disorder":13433,"/.":13434,"▁hopes":13435,"itat":13436,"▁nose":13437,"▁MOD":13438,"▁sevent":13439,"▁Ocean":13440,"▁scar":13441,"▁unusual":13442,"ingen":13443,"▁Mobile":13444,"aceut":13445,"▁Hi":13446,"▁hoping":13447,"▁revol":13448,"▁spo":13449,"▁flavor":13450,"▁Pier":13451,"▁accounting":13452,"▁snap":13453,"▁tensor":13454,"thal":13455,"▁Bureau":13456,"▁Nu":13457,"▁Dor":13458,"done":13459,"▁Occ":13460,"▁illegal":13461,"velope":13462,"plements":13463,"rito":13464,"▁shouldn":13465,"Perm":13466,"▁conten":13467,"▁Hum":13468,"▁Hig":13469,"▁Install":13470,"▁Lady":13471,"▁Jen":13472,"▁elsewhere":13473,"aska":13474,"▁pulse":13475,"▁ecosystem":13476,"▁featuring":13477,"itement":13478,"▁intense":13479,"ulent":13480,"▁forgot":13481,"▁raising":13482,"ylvan":13483,"▁ownership":13484,"aty":13485,"gas":13486,"▁difficulties":13487,"▁seal":13488,"▁impacts":13489,"iami":13490,"▁Marketing":13491,"▁precision":13492,"lav":13493,"aton":13494,"agan":13495,"otive":13496,"▁tower":13497,"▁Khan":13498,"▁symmetry":13499,"lett":13500,"▁insight":13501,"▁IND":13502,"▁territor":13503,"▁mixing":13504,"▁producer":13505,"▁racing":13506,"▁marine":13507,"DT":13508,"▁functionality":13509,"Excel":13510,"▁rational":13511,"INSERT":13512,"▁Matt":13513,"contents":13514,"Mo":13515,"▁counts":13516,"▁movements":13517,"▁Hope":13518,"▁Despite":13519,"lio":13520,"▁environments":13521,"▁Winter":13522,"argv":13523,"mir":13524,"▁variant":13525,"Flag":13526,"▁Ms":13527,"▁nove":13528,"ulla":13529,"events":13530,"▁scenes":13531,"▁PER":13532,"unn":13533,"▁Kan":13534,"▁pine":13535,"▁lav":13536,"▁Shop":13537,"▁Environmental":13538,"opher":13539,"▁aggress":13540,"▁sectors":13541,"▁embod":13542,"kr":13543,"ouver":13544,"▁anymore":13545,"▁VI":13546,"▁Studio":13547,"▁punct":13548,"lah":13549,"▁prol":13550,"▁Stephen":13551,"▁gaming":13552,"interface":13553,"uter":13554,"neh":13555,"MAT":13556,"▁Nap":13557,"database":13558,"browser":13559,"News":13560,"▁vitamin":13561,"pond":13562,"▁incent":13563,"rell":13564,"▁anh":13565,"▁illustrated":13566,"▁Hindi":13567,"▁recurs":13568,"matic":13569,"▁Instrument":13570,"addle":13571,"▁mock":13572,"oku":13573,"ovan":13574,"▁overwhel":13575,"Struct":13576,"▁victims":13577,"friger":13578,"editor":13579,"▁pendant":13580,"▁basketball":13581,"▁fewer":13582,"▁province":13583,"▁Silver":13584,"Finally":13585,"▁DES":13586,"▁$$":13587,"▁workshop":13588,"Register":13589,"▁Tech":13590,"Parent":13591,"▁NAS":13592,"▁bout":13593,"▁heavily":13594,"▁mend":13595,"amination":13596,"▁Steve":13597,"▁riding":13598,"▁accessories":13599,"▁neu":13600,"ulse":13601,"ATIONS":13602,"▁Sometimes":13603,"▁Columbia":13604,"geb":13605,"eye":13606,"Iter":13607,"▁Defense":13608,"available":13609,"▁discussions":13610,"▁Vers":13611,"azol":13612,"▁Ru":13613,"▁Dark":13614,"▁DB":13615,"cb":13616,"rir":13617,"▁weights":13618,"▁Basic":13619,"▁expend":13620,"▁rap":13621,"▁torn":13622,"Cre":13623,"▁Tar":13624,"elve":13625,"▁filling":13626,"STAT":13627,"Mut":13628,"▁Kur":13629,"▁Alexander":13630,"▁sql":13631,"opter":13632,"▁Tel":13633,"ivas":13634,"▁receiver":13635,"▁Additionally":13636,"▁Battle":13637,"▁stamp":13638,"▁Vice":13639,"▁Moscow":13640,"▁bearing":13641,"▁hypothesis":13642,"Ma":13643,"▁sampling":13644,"▁administer":13645,"▁sta":13646,"▁processed":13647,"▁loud":13648,"▁flour":13649,"▁expense":13650,"▁serum":13651,"▁MC":13652,"▁Thread":13653,"javascript":13654,"▁DIS":13655,"agers":13656,"▁filters":13657,"ensing":13658,"▁Comment":13659,"▁wins":13660,"▁wi":13661,"▁chamber":13662,"▁developments":13663,"▁rapport":13664,"▁Major":13665,"▁secured":13666,"▁mild":13667,"▁regarded":13668,"MD":13669,"▁Due":13670,"Microsoft":13671,"▁stir":13672,"shall":13673,"Head":13674,"▁vars":13675,"▁Param":13676,"▁Lewis":13677,"icia":13678,"ouses":13679,"▁algo":13680,"▁Nick":13681,"hyth":13682,"desc":13683,"▁cabinet":13684,"▁Jane":13685,"Spe":13686,"ydney":13687,"uminate":13688,"Scroll":13689,"▁removing":13690,"▁burning":13691,"HP":13692,"▁sele":13693,"▁frames":13694,"▁rag":13695,"▁analyze":13696,"▁Cher":13697,"Channel":13698,"▁synthesis":13699,"yi":13700,"sembl":13701,"wend":13702,"rique":13703,"NET":13704,"▁collections":13705,"ikh":13706,"▁validate":13707,"character":13708,"liers":13709,"▁Proc":13710,"▁satu":13711,"friendly":13712,"▁Histor":13713,"▁Malays":13714,"▁Pu":13715,"▁MB":13716,"▁Nord":13717,"▁??":13718,"training":13719,"….":13720,"▁Zeit":13721,"resources":13722,"▁swit":13723,"zza":13724,"▁brilli":13725,"▁opposed":13726,"▁Save":13727,"▁gravity":13728,"IMAGE":13729,"▁killing":13730,"▁headers":13731,"▁Original":13732,"▁forming":13733,"▁establishment":13734,"▁pregnancy":13735,"▁meals":13736,"▁childhood":13737,"paren":13738,"},\\":13739,"▁pipeline":13740,"▁Este":13741,"▁lattice":13742,"▁elabor":13743,"▁mistake":13744,"▁Prince":13745,"▁toy":13746,"hum":13747,"Los":13748,"connected":13749,"Material":13750,"▁Summer":13751,"▁compatible":13752,"decor":13753,"▁Iss":13754,"▁obt":13755,"▁Yang":13756,"▁Kir":13757,"▁representatives":13758,"▁lem":13759,"▁Chairman":13760,"▁ic":13761,"anka":13762,"▁coord":13763,"▁Should":13764,"▁Ave":13765,"CCC":13766,"▁Staff":13767,"▁oxid":13768,"looking":13769,"▁plugin":13770,"▁soup":13771,"▁fed":13772,"▁fare":13773,"▁mesh":13774,"iji":13775,"Dim":13776,"▁sid":13777,"▁precise":13778,"▁boundaries":13779,"single":13780,"duration":13781,"▁beneficial":13782,"▁breaks":13783,"▁Vin":13784,"▁Cit":13785,"▁donn":13786,"▁fits":13787,"▁parad":13788,"▁opens":13789,"icz":13790,"PG":13791,"▁\"<":13792,"▁feeding":13793,"___":13794,"▁suspension":13795,"four":13796,"▁metall":13797,"▁vil":13798,"▁Singapore":13799,"parameters":13800,"rev":13801,"Events":13802,"▁shots":13803,"▁Child":13804,"▁denomin":13805,"▁Region":13806,"▁gamb":13807,"loader":13808,"▁engineer":13809,"▁Move":13810,"circle":13811,"▁Disney":13812,"uzzle":13813,"Single":13814,"▁constants":13815,"▁crystals":13816,"▁Holy":13817,"generate":13818,"Okay":13819,"▁boards":13820,"▁drinks":13821,"▁watched":13822,"▁adventure":13823,"▁muscles":13824,"▁pocket":13825,"OF":13826,"▁invalid":13827,"engine":13828,"▁Compar":13829,"▁classroom":13830,"▁ISS":13831,"▁contrad":13832,"▁pond":13833,"ibilit":13834,"impl":13835,"▁persona":13836,"ifiers":13837,"▁readily":13838,"▁encouraged":13839,"▁dictionary":13840,"agnetic":13841,"▁Personal":13842,"▁expressions":13843,"Random":13844,"▁liability":13845,"▁Mais":13846,"platform":13847,"Java":13848,"▁increment":13849,"▁soy":13850,"▁sculpt":13851,"▁gust":13852,"▁Route":13853,"orry":13854,"tags":13855,"▁Barb":13856,"Public":13857,"▁meter":13858,"Security":13859,"▁injection":13860,"▁patch":13861,"▁Manchester":13862,"Statement":13863,"oval":13864,"▁pist":13865,"VM":13866,"▁celebration":13867,"▁wherein":13868,"▁Gene":13869,"▁inverse":13870,"▁flexibility":13871,"▁notification":13872,"acious":13873,"viously":13874,"▁Share":13875,"▁testimony":13876,"▁refused":13877,"otte":13878,"▁Limited":13879,"▁lap":13880,"▁tens":13881,"Handle":13882,"\\_":13883,"▁Ron":13884,"▁Victoria":13885,"▁bases":13886,"▁handles":13887,"obil":13888,"<!":13889,"▁SW":13890,"ousing":13891,"▁lucky":13892,"clean":13893,"▁Flow":13894,"▁Learning":13895,"LETE":13896,"agle":13897,"▁Δ":13898,"▁elegant":13899,"Aerial":13900,"▁organisation":13901,"▁restricted":13902,"▁Hil":13903,"▁cher":13904,"adora":13905,"▁Kenn":13906,"TL":13907,"between":13908,"▁:-":13909,"bek":13910,"emies":13911,"Variable":13912,"▁suggestions":13913,"▁INTO":13914,"▁Burn":13915,"▁Dim":13916,"▁assault":13917,"▁Creek":13918,"Resources":13919,"▁PRE":13920,"merge":13921,"condition":13922,"operation":13923,"▁Kg":13924,"gly":13925,"▁Side":13926,"▁scholar":13927,"▁divide":13928,"▁desert":13929,"▁autonom":13930,"▁Jewish":13931,"integr":13932,"▁corporation":13933,"▁Display":13934,"▁Still":13935,"▁memories":13936,"▁tied":13937,"Watch":13938,"groups":13939,"estone":13940,"▁addresses":13941,"▁Stre":13942,"Mac":13943,"Por":13944,"some":13945,"▁banking":13946,"▁proceedings":13947,"camp":13948,"▁upgrade":13949,"▁vic":13950,"▁uncertainty":13951,"▁contributed":13952,"▁CONT":13953,"▁speakers":13954,"arin":13955,"▁aimed":13956,"▁deeper":13957,"▁Greg":13958,"▁authorized":13959,"▁sag":13960,"▁weigh":13961,"▁stunning":13962,"▁Ross":13963,"▁executed":13964,"boy":13965,"▁Students":13966,"▁dishes":13967,"▁titles":13968,"download":13969,"▁designated":13970,"▁UV":13971,"▁deeply":13972,"▁coupling":13973,"▁implements":13974,"▁elder":13975,"▁holder":13976,"apon":13977,"▁neighbour":13978,"▁weren":13979,"▁drone":13980,"▁municipal":13981,"stru":13982,"mium":13983,"▁insights":13984,"arded":13985,"ylvania":13986,"ulp":13987,"weather":13988,"azy":13989,"odi":13990,"▁sink":13991,"nego":13992,"bid":13993,"▁optional":13994,"Func":13995,"▁urg":13996,"▁BC":13997,"▁brothers":13998,"nit":13999,"▁Represent":14000,"▁logging":14001,"▁sufficiently":14002,"necess":14003,"▁indirect":14004,"▁profits":14005,"esa":14006,"▁js":14007,"▁projection":14008,"datetime":14009,"oba":14010,"▁displays":14011,"▁Default":14012,"▁wireless":14013,"▁sorted":14014,"▁esse":14015,"▁remarkable":14016,"▁affects":14017,"iker":14018,"▁Industrial":14019,"▁confusion":14020,"Fire":14021,"deo":14022,"factor":14023,"iol":14024,"▁arbitrary":14025,"▁ads":14026,"▁scattering":14027,"▁legit":14028,"▁varying":14029,"▁pollution":14030,"▁quan":14031,"▁exterior":14032,"MW":14033,"▁answered":14034,"▁collective":14035,"README":14036,"▁phases":14037,"Opening":14038,"▁IC":14039,"iamond":14040,"▁jog":14041,"▁pizza":14042,"prim":14043,"techn":14044,"▁vou":14045,"▁charging":14046,"▁anten":14047,"▁lifetime":14048,"▁Annual":14049,"▁Unt":14050,"▁dreams":14051,"▁txt":14052,"infl":14053,"▁Authority":14054,"pic":14055,"▁hid":14056,"rece":14057,"▁:)":14058,"▁computers":14059,"▁Without":14060,"▁staying":14061,"correct":14062,"▁ought":14063,"▁ei":14064,"▁metrics":14065,"▁Determ":14066,"▁ting":14067,"season":14068,"▁searching":14069,"slice":14070,"▁glow":14071,"}}}":14072,"Sample":14073,"BY":14074,"nas":14075,"asty":14076,"vc":14077,"uset":14078,"ENG":14079,"▁disabled":14080,"olver":14081,"▁swing":14082,"▁pushed":14083,"riving":14084,"▁qua":14085,"▁opinions":14086,"▁Nag":14087,"▁Galaxy":14088,"▁satisfies":14089,"▁Rey":14090,"▁jar":14091,"APP":14092,"▁Autom":14093,"Lower":14094,"▁modules":14095,"ursor":14096,"▁panels":14097,"Anal":14098,"▁Size":14099,"Radius":14100,"▁Belg":14101,"▁Deut":14102,"ogenic":14103,"▁lets":14104,"▁rolling":14105,"▁exhibition":14106,"▁EC":14107,"▁sear":14108,"▁wheels":14109,"▁refund":14110,"mates":14111,"ongoose":14112,"clipse":14113,"▁Help":14114,"▁Cir":14115,"Google":14116,"▁focusing":14117,"dependent":14118,"▁molecule":14119,"▁,,":14120,"sha":14121,"▁philosophy":14122,"▁fusion":14123,"endif":14124,"expr":14125,"▁dried":14126,"kol":14127,"▁Record":14128,"▁Bag":14129,"Cart":14130,"▁Senior":14131,"▁asks":14132,"▁Question":14133,"▁clubs":14134,"▁venue":14135,"Er":14136,"▁performances":14137,"▁OP":14138,"▁viewed":14139,"rying":14140,"eled":14141,"textbf":14142,"▁arranged":14143,"▁DR":14144,"Hub":14145,"?,":14146,"▁crash":14147,"▁cylinder":14148,"▁jurisdiction":14149,"▁notion":14150,"arma":14151,"▁civ":14152,"compat":14153,"▁dimin":14154,"opath":14155,"▁damages":14156,"achine":14157,"likely":14158,"▁amen":14159,"dp":14160,"▁reb":14161,"▁Qual":14162,"▁decreases":14163,"Points":14164,"kow":14165,"isha":14166,"▁Madrid":14167,"generated":14168,"▁Eh":14169,"▁Tab":14170,"▁survive":14171,"rained":14172,"▁simultaneously":14173,"▁anniversary":14174,"ETH":14175,"domain":14176,"contract":14177,"▁delta":14178,"▁penet":14179,"▁Exchange":14180,"▁Tag":14181,"acking":14182,"▁Moon":14183,"▁Heart":14184,"▁aerial":14185,"▁dominant":14186,"▁mb":14187,"▁Philadelphia":14188,"▁bills":14189,"cretion":14190,"▁Finance":14191,"Sequ":14192,"▁penc":14193,"▁NA":14194,"ché":14195,"ipes":14196,"ei":14197,"Rob":14198,"▁Tak":14199,"▁belongs":14200,
[...]
